{
  "version": "1.0",
  "truncation": {
    "direction": "Right",
    "max_length": 128,
    "strategy": "LongestFirst",
    "stride": 0
  },
  "padding": {
    "strategy": {
      "Fixed": 128
    },
    "direction": "Right",
    "pad_to_multiple_of": null,
    "pad_id": 1,
    "pad_type_id": 0,
    "pad_token": "<pad>"
  },
  "added_tokens": [
    {
      "id": 0,
      "content": "<s>",
      "single_word": false,
      "lstrip": false,
      "rstrip": false,
      "normalized": true,
      "special": true
    },
    {
      "id": 1,
      "content": "<pad>",
      "single_word": false,
      "lstrip": false,
      "rstrip": false,
      "normalized": true,
      "special": true
    },
    {
      "id": 2,
      "content": "</s>",
      "single_word": false,
      "lstrip": false,
      "rstrip": false,
      "normalized": true,
      "special": true
    },
    {
      "id": 3,
      "content": "<unk>",
      "single_word": false,
      "lstrip": false,
      "rstrip": false,
      "normalized": true,
      "special": true
    },
    {
      "id": 4,
      "content": "<mask>",
      "single_word": false,
      "lstrip": true,
      "rstrip": false,
      "normalized": true,
      "special": true
    }
  ],
  "normalizer": null,
  "pre_tokenizer": {
    "type": "ByteLevel",
    "add_prefix_space": false,
    "trim_offsets": true,
    "use_regex": true
  },
  "post_processor": {
    "type": "RobertaProcessing",
    "sep": [
      "</s>",
      2
    ],
    "cls": [
      "<s>",
      0
    ],
    "trim_offsets": true,
    "add_prefix_space": false
  },
  "decoder": {
    "type": "ByteLevel",
    "add_prefix_space": true,
    "trim_offsets": true,
    "use_regex": true
  },
  "model": {
    "type": "BPE",
    "dropout": null,
    "unk_token": null,
    "continuing_subword_prefix": "",
    "end_of_word_suffix": "",
    "fuse_unk": false,
    "byte_fallback": false,
    "vocab": {
      "<s>": 0,
      "<pad>": 1,
      "</s>": 2,
      "<unk>": 3,
      "<mask>": 4,
      "!": 5,
      "\"": 6,
      "#": 7,
      "$": 8,
      "%": 9,
      "&": 10,
      "'": 11,
      "(": 12,
      ")": 13,
      "*": 14,
      "+": 15,
      ",": 16,
      "-": 17,
      ".": 18,
      "/": 19,
      "0": 20,
      "1": 21,
      "2": 22,
      "3": 23,
      "4": 24,
      "5": 25,
      "6": 26,
      "7": 27,
      "8": 28,
      "9": 29,
      ":": 30,
      ";": 31,
      "<": 32,
      "=": 33,
      ">": 34,
      "?": 35,
      "@": 36,
      "A": 37,
      "B": 38,
      "C": 39,
      "D": 40,
      "E": 41,
      "F": 42,
      "G": 43,
      "H": 44,
      "I": 45,
      "J": 46,
      "K": 47,
      "L": 48,
      "M": 49,
      "N": 50,
      "O": 51,
      "P": 52,
      "Q": 53,
      "R": 54,
      "S": 55,
      "T": 56,
      "U": 57,
      "V": 58,
      "W": 59,
      "X": 60,
      "Y": 61,
      "Z": 62,
      "[": 63,
      "\\": 64,
      "]": 65,
      "^": 66,
      "_": 67,
      "`": 68,
      "a": 69,
      "b": 70,
      "c": 71,
      "d": 72,
      "e": 73,
      "f": 74,
      "g": 75,
      "h": 76,
      "i": 77,
      "j": 78,
      "k": 79,
      "l": 80,
      "m": 81,
      "n": 82,
      "o": 83,
      "p": 84,
      "q": 85,
      "r": 86,
      "s": 87,
      "t": 88,
      "u": 89,
      "v": 90,
      "w": 91,
      "x": 92,
      "y": 93,
      "z": 94,
      "{": 95,
      "|": 96,
      "}": 97,
      "~": 98,
      "¡": 99,
      "¢": 100,
      "£": 101,
      "¤": 102,
      "¥": 103,
      "¦": 104,
      "§": 105,
      "¨": 106,
      "©": 107,
      "ª": 108,
      "«": 109,
      "¬": 110,
      "®": 111,
      "¯": 112,
      "°": 113,
      "±": 114,
      "²": 115,
      "³": 116,
      "´": 117,
      "µ": 118,
      "¶": 119,
      "·": 120,
      "¸": 121,
      "¹": 122,
      "º": 123,
      "»": 124,
      "¼": 125,
      "½": 126,
      "¾": 127,
      "¿": 128,
      "À": 129,
      "Á": 130,
      "Â": 131,
      "Ã": 132,
      "Ä": 133,
      "Å": 134,
      "Æ": 135,
      "Ç": 136,
      "È": 137,
      "É": 138,
      "Ê": 139,
      "Ë": 140,
      "Ì": 141,
      "Í": 142,
      "Î": 143,
      "Ï": 144,
      "Ð": 145,
      "Ñ": 146,
      "Ò": 147,
      "Ó": 148,
      "Ô": 149,
      "Õ": 150,
      "Ö": 151,
      "×": 152,
      "Ø": 153,
      "Ù": 154,
      "Ú": 155,
      "Û": 156,
      "Ü": 157,
      "Ý": 158,
      "Þ": 159,
      "ß": 160,
      "à": 161,
      "á": 162,
      "â": 163,
      "ã": 164,
      "ä": 165,
      "å": 166,
      "æ": 167,
      "ç": 168,
      "è": 169,
      "é": 170,
      "ê": 171,
      "ë": 172,
      "ì": 173,
      "í": 174,
      "î": 175,
      "ï": 176,
      "ð": 177,
      "ñ": 178,
      "ò": 179,
      "ó": 180,
      "ô": 181,
      "õ": 182,
      "ö": 183,
      "÷": 184,
      "ø": 185,
      "ù": 186,
      "ú": 187,
      "û": 188,
      "ü": 189,
      "ý": 190,
      "þ": 191,
      "ÿ": 192,
      "Ā": 193,
      "ā": 194,
      "Ă": 195,
      "ă": 196,
      "Ą": 197,
      "ą": 198,
      "Ć": 199,
      "ć": 200,
      "Ĉ": 201,
      "ĉ": 202,
      "Ċ": 203,
      "ċ": 204,
      "Č": 205,
      "č": 206,
      "Ď": 207,
      "ď": 208,
      "Đ": 209,
      "đ": 210,
      "Ē": 211,
      "ē": 212,
      "Ĕ": 213,
      "ĕ": 214,
      "Ė": 215,
      "ė": 216,
      "Ę": 217,
      "ę": 218,
      "Ě": 219,
      "ě": 220,
      "Ĝ": 221,
      "ĝ": 222,
      "Ğ": 223,
      "ğ": 224,
      "Ġ": 225,
      "ġ": 226,
      "Ģ": 227,
      "ģ": 228,
      "Ĥ": 229,
      "ĥ": 230,
      "Ħ": 231,
      "ħ": 232,
      "Ĩ": 233,
      "ĩ": 234,
      "Ī": 235,
      "ī": 236,
      "Ĭ": 237,
      "ĭ": 238,
      "Į": 239,
      "į": 240,
      "İ": 241,
      "ı": 242,
      "Ĳ": 243,
      "ĳ": 244,
      "Ĵ": 245,
      "ĵ": 246,
      "Ķ": 247,
      "ķ": 248,
      "ĸ": 249,
      "Ĺ": 250,
      "ĺ": 251,
      "Ļ": 252,
      "ļ": 253,
      "Ľ": 254,
      "ľ": 255,
      "Ŀ": 256,
      "ŀ": 257,
      "Ł": 258,
      "ł": 259,
      "Ń": 260,
      "ĠĠ": 261,
      "ĠĠĠĠ": 262,
      "ĠĠĠ": 263,
      "ĠĠĠĠĠĠĠĠ": 264,
      "er": 265,
      "on": 266,
      "ĠĠĠĠĠĠĠ": 267,
      "re": 268,
      "in": 269,
      "at": 270,
      "ĉĉ": 271,
      "Ġ=": 272,
      "se": 273,
      "st": 274,
      "th": 275,
      "en": 276,
      "or": 277,
      "ĠĠĠĠĠĠĠĠĠĠĠ": 278,
      "al": 279,
      "Ġ$": 280,
      "ion": 281,
      "le": 282,
      "ar": 283,
      "Ġ{": 284,
      ");": 285,
      "is": 286,
      "et": 287,
      "ur": 288,
      "de": 289,
      "ct": 290,
      "an": 291,
      "if": 292,
      "Ġf": 293,
      "me": 294,
      "Ġn": 295,
      "Ġc": 296,
      "ce": 297,
      "Ġ(": 298,
      "Ġre": 299,
      "ro": 300,
      "it": 301,
      "Ġ}": 302,
      "->": 303,
      "Ġt": 304,
      "ing": 305,
      "Ġth": 306,
      "un": 307,
      "ent": 308,
      "ue": 309,
      "urn": 310,
      "ĠĠĠĠĠĠĠĠĠĠĠĠĠĠĠ": 311,
      "turn": 312,
      "Ġp": 313,
      "()": 314,
      "get": 315,
      "ut": 316,
      "Ġif": 317,
      "Ġ'": 318,
      "as": 319,
      "es": 320,
      "ame": 321,
      "ul": 322,
      "ch": 323,
      "ed": 324,
      "Ġs": 325,
      "il": 326,
      "el": 327,
      "li": 328,
      "lo": 329,
      "pt": 330,
      "Ġ\"": 331,
      "ex": 332,
      "Ġin": 333,
      "ad": 334,
      "id": 335,
      "ate": 336,
      "Ġo": 337,
      "Ġb": 338,
      "ra": 339,
      "($": 340,
      "pe": 341,
      "this": 342,
      "Ġthe": 343,
      "ag": 344,
      "Ġreturn": 345,
      "ction": 346,
      "tr": 347,
      "co": 348,
      "Ġa": 349,
      "Ġse": 350,
      "ĠĠĠĠĠĠĠĠĠĠĠĠĠĠĠĠ": 351,
      "fi": 352,
      "ĉĉĉ": 353,
      "Ġm": 354,
      "Ġd": 355,
      "ck": 356,
      "lf": 357,
      "//": 358,
      "am": 359,
      "val": 360,
      "ot": 361,
      "ew": 362,
      "Ġw": 363,
      "ub": 364,
      "err": 365,
      "ab": 366,
      "Ġ:": 367,
      "ption": 368,
      "str": 369,
      "um": 370,
      "ation": 371,
      "em": 372,
      "ype": 373,
      "ĠĠĠĠĠ": 374,
      "ont": 375,
      "In": 376,
      "))": 377,
      "ss": 378,
      "ata": 379,
      "čĊ": 380,
      "--": 381,
      "ol": 382,
      "and": 383,
      "ode": 384,
      "ap": 385,
      "Ġto": 386,
      "ey": 387,
      "ter": 388,
      "ĉĉĉĉ": 389,
      "ĠĠĠĠĠĠĠĠĠĠĠĠĠĠĠĠĠĠĠ": 390,
      "',": 391,
      "ext": 392,
      "ult": 393,
      "('": 394,
      "ect": 395,
      "set": 396,
      "Ġ*": 397,
      "age": 398,
      "unction": 399,
      "up": 400,
      "ri": 401,
      "lic": 402,
      "Ġis": 403,
      "om": 404,
      "ull": 405,
      "name": 406,
      "Ġself": 407,
      "ers": 408,
      "ĠS": 409,
      "ass": 410,
      "Ġfor": 411,
      "ath": 412,
      "Ġ//": 413,
      "['": 414,
      "();": 415,
      "return": 416,
      "def": 417,
      "able": 418,
      "us": 419,
      "value": 420,
      "']": 421,
      "Ġ==": 422,
      "end": 423,
      "Ġ+": 424,
      "aram": 425,
      "Ġnew": 426,
      "(\"": 427,
      "ic": 428,
      "Ex": 429,
      "Ġ0": 430,
      "ist": 431,
      "Re": 432,
      "od": 433,
      "\"\"": 434,
      "Ġerr": 435,
      "ile": 436,
      "int": 437,
      "Ġv": 438,
      "Name": 439,
      "Ġh": 440,
      "ray": 441,
      "all": 442,
      "res": 443,
      "Ġ!": 444,
      "ment": 445,
      "ase": 446,
      "Ġst": 447,
      "key": 448,
      "ig": 449,
      "bj": 450,
      "Ġl": 451,
      "\",": 452,
      "ve": 453,
      "):": 454,
      "ublic": 455,
      "put": 456,
      "tring": 457,
      "Ġel": 458,
      "pl": 459,
      "to": 460,
      "ĠT": 461,
      "im": 462,
      "iz": 463,
      "que": 464,
      "Ġof": 465,
      "ime": 466,
      "Ġfunction": 467,
      "per": 468,
      "Ġnull": 469,
      "one": 470,
      "Ġ#": 471,
      "con": 472,
      "lass": 473,
      "ĠC": 474,
      "qu": 475,
      "he": 476,
      "for": 477,
      "::": 478,
      "public": 479,
      "Ġ\"\"\"": 480,
      "fig": 481,
      "Ġelse": 482,
      "nt": 483,
      "Ġe": 484,
      "ver": 485,
      "ception": 486,
      "array": 487,
      "arg": 488,
      "Ġ!=": 489,
      "vi": 490,
      "quest": 491,
      "string": 492,
      "art": 493,
      "Ġ1": 494,
      "po": 495,
      "Ġ[": 496,
      "Ġ&": 497,
      "add": 498,
      "Ġtr": 499,
      "ort": 500,
      "row": 501,
      "ack": 502,
      "pro": 503,
      "Ġ.": 504,
      "')": 505,
      "ach": 506,
      "our": 507,
      "St": 508,
      "pon": 509,
      "Ġres": 510,
      "bject": 511,
      "Ġnot": 512,
      "self": 513,
      "Ġ($": 514,
      "atch": 515,
      "eld": 516,
      "ace": 517,
      "Exception": 518,
      "ĠA": 519,
      "der": 520,
      "Ġ:=": 521,
      "Val": 522,
      "ĠN": 523,
      "Ġ=>": 524,
      "rr": 525,
      "ance": 526,
      "fo": 527,
      "ser": 528,
      "ith": 529,
      "Ġthis": 530,
      "Ġex": 531,
      "ource": 532,
      "alse": 533,
      "Err": 534,
      "Ġr": 535,
      "Ġg": 536,
      "Ġbe": 537,
      "ay": 538,
      "Ġnil": 539,
      "ang": 540,
      "type": 541,
      "ir": 542,
      "Ġand": 543,
      "data": 544,
      "te": 545,
      "ĠĠĠĠĠĠĠĠĠĠĠĠĠĠĠĠĠĠĠĠĠĠĠ": 546,
      "Type": 547,
      "Ġget": 548,
      "ain": 549,
      "._": 550,
      "Con": 551,
      "----": 552,
      "Id": 553,
      "Ġ)": 554,
      "unc": 555,
      "Ġcon": 556,
      "out": 557,
      "log": 558,
      "ize": 559,
      "ow": 560,
      "Ġ-": 561,
      "De": 562,
      "rom": 563,
      "unt": 564,
      "file": 565,
      "Ġ_": 566,
      "param": 567,
      "ib": 568,
      "ine": 569,
      "String": 570,
      "dex": 571,
      "list": 572,
      "ĠI": 573,
      "rent": 574,
      "Error": 575,
      "Pro": 576,
      "Res": 577,
      "path": 578,
      "form": 579,
      "cont": 580,
      "Ġpro": 581,
      "),": 582,
      "app": 583,
      "ity": 584,
      "Value": 585,
      "Ġde": 586,
      "ponse": 587,
      "ord": 588,
      "oc": 589,
      "ptions": 590,
      "Ġas": 591,
      "ht": 592,
      "List": 593,
      "ore": 594,
      "ip": 595,
      "Ġ<": 596,
      "ak": 597,
      "stance": 598,
      "ire": 599,
      "ĠF": 600,
      "Ġ&&": 601,
      "Ġvalue": 602,
      "sh": 603,
      "rit": 604,
      "Cont": 605,
      "En": 606,
      "com": 607,
      "Ġor": 608,
      "ind": 609,
      "Ġi": 610,
      "ure": 611,
      "ff": 612,
      "args": 613,
      "ĠP": 614,
      "pre": 615,
      "ault": 616,
      "func": 617,
      "Ġit": 618,
      "())": 619,
      "ĠĠĠĠĠĠĠĠĠ": 620,
      "eng": 621,
      "To": 622,
      "ax": 623,
      "vice": 624,
      "Ġarray": 625,
      "ition": 626,
      "bu": 627,
      "lement": 628,
      "vent": 629,
      "inal": 630,
      "Ġ|": 631,
      "cess": 632,
      "Ġ>": 633,
      "Ġ%": 634,
      "thod": 635,
      "Ġcont": 636,
      "port": 637,
      "ans": 638,
      "und": 639,
      "ator": 640,
      "reate": 641,
      "ER": 642,
      "ory": 643,
      "ery": 644,
      "ĠM": 645,
      "Ġthrow": 646,
      "ield": 647,
      "ument": 648,
      "op": 649,
      "ength": 650,
      "col": 651,
      "Ġname": 652,
      "\")": 653,
      "use": 654,
      "Ġme": 655,
      "ild": 656,
      "ute": 657,
      "ies": 658,
      "Ġfalse": 659,
      "':": 660,
      "Key": 661,
      "ule": 662,
      "Ar": 663,
      "Ġint": 664,
      "ust": 665,
      "class": 666,
      "user": 667,
      "valid": 668,
      "(),": 669,
      "Ġerror": 670,
      "ĠString": 671,
      "act": 672,
      "00": 673,
      "ial": 674,
      "roup": 675,
      "ken": 676,
      "ON": 677,
      "code": 678,
      "Ġstring": 679,
      "oo": 680,
      "Ġdata": 681,
      "Data": 682,
      "ĠR": 683,
      "ast": 684,
      "IN": 685,
      "sc": 686,
      "ĉĉĉĉĉ": 687,
      "Ġan": 688,
      "trib": 689,
      "odel": 690,
      "Ġtrue": 691,
      "url": 692,
      "Ġstat": 693,
      "Ġch": 694,
      "ail": 695,
      "];": 696,
      "ign": 697,
      "Ġ(!": 698,
      "pert": 699,
      "Ġfile": 700,
      "date": 701,
      ").": 702,
      "lient": 703,
      "Object": 704,
      "lock": 705,
      "ader": 706,
      "Ġcom": 707,
      "cl": 708,
      "ger": 709,
      "var": 710,
      "().": 711,
      "Ġwh": 712,
      "Ġwith": 713,
      "default": 714,
      "Ġset": 715,
      "ID": 716,
      "ĠNone": 717,
      "ive": 718,
      "Ġj": 719,
      "[$": 720,
      "Lo": 721,
      "Ġvar": 722,
      "File": 723,
      "==": 724,
      "');": 725,
      "Ġstr": 726,
      "ise": 727,
      "ange": 728,
      "Ġ`": 729,
      "Path": 730,
      "ĠD": 731,
      "new": 732,
      "ber": 733,
      "ess": 734,
      "iv": 735,
      "..": 736,
      "],": 737,
      "ĠĠĠĠĠĠĠĠĠĠĠĠĠĠĠĠĠĠĠĠĠĠĠĠĠĠĠĠĠĠĠĠ": 738,
      "ersion": 739,
      "Ġ2": 740,
      "Ġon": 741,
      "config": 742,
      "ated": 743,
      "function": 744,
      "Ġkey": 745,
      "low": 746,
      "cur": 747,
      "\");": 748,
      "os": 749,
      "ple": 750,
      "[]": 751,
      "rint": 752,
      "ly": 753,
      "sp": 754,
      "loc": 755,
      "ilter": 756,
      "Request": 757,
      "Ġresult": 758,
      "ener": 759,
      "result": 760,
      "Ch": 761,
      "pp": 762,
      "umn": 763,
      "Ġ===": 764,
      "());": 765,
      "Ġlist": 766,
      "Ġ||": 767,
      "Com": 768,
      "tem": 769,
      "Bu": 770,
      "));": 771,
      "Ġfrom": 772,
      "load": 773,
      "ost": 774,
      "Ġ?": 775,
      "Ser": 776,
      "Ġout": 777,
      "ence": 778,
      "ler": 779,
      "Ġ);": 780,
      "arse": 781,
      "Param": 782,
      "read": 783,
      "Class": 784,
      "Ġ@": 785,
      "Set": 786,
      "Un": 787,
      "AT": 788,
      "ill": 789,
      "Config": 790,
      "Ġwe": 791,
      "orm": 792,
      "ph": 793,
      "])": 794,
      "Ġun": 795,
      "back": 796,
      "field": 797,
      "ifi": 798,
      "ec": 799,
      "query": 800,
      "ry": 801,
      "lect": 802,
      "ml": 803,
      "tp": 804,
      "pec": 805,
      "ant": 806,
      "Ġstatic": 807,
      "length": 808,
      "format": 809,
      "At": 810,
      "di": 811,
      "append": 812,
      "mo": 813,
      "ne": 814,
      "ork": 815,
      "ary": 816,
      "rite": 817,
      "uth": 818,
      "son": 819,
      "Ġ/": 820,
      "Ġal": 821,
      "heck": 822,
      "Ġk": 823,
      "ST": 824,
      "RE": 825,
      "By": 826,
      "Ġat": 827,
      "request": 828,
      "pa": 829,
      "error": 830,
      "ash": 831,
      "Ġy": 832,
      "ms": 833,
      "ĠĠĠĠĠĠĠĠĠĠĠĠĠĠĠĠĠĠĠĠĠĠĠĠĠĠĠ": 834,
      "Ġend": 835,
      "Ġby": 836,
      "Ġ\\": 837,
      "**": 838,
      "pos": 839,
      "Ġtry": 840,
      "Ġcase": 841,
      "ssage": 842,
      "Node": 843,
      "ound": 844,
      "not": 845,
      "options": 846,
      "ream": 847,
      "Ġthat": 848,
      "ask": 849,
      "dd": 850,
      "ssion": 851,
      "arget": 852,
      "Ġdo": 853,
      "Ġlog": 854,
      "Get": 855,
      "ache": 856,
      "oid": 857,
      "Ġx": 858,
      "pty": 859,
      "ac": 860,
      "Ġpre": 861,
      "tern": 862,
      "ded": 863,
      "of": 864,
      "Se": 865,
      "umber": 866,
      "fer": 867,
      "ĠO": 868,
      "item": 869,
      "ere": 870,
      "Ġsh": 871,
      "Tr": 872,
      "index": 873,
      "time": 874,
      "Ġra": 875,
      "Ġim": 876,
      "ĠĠĠĠĠĠ": 877,
      "ens": 878,
      "perty": 879,
      "ave": 880,
      "ĠL": 881,
      "Ġtype": 882,
      "count": 883,
      "Col": 884,
      "Time": 885,
      "abel": 886,
      "ert": 887,
      "ide": 888,
      "sub": 889,
      "reak": 890,
      "Ġadd": 891,
      "atus": 892,
      "ĠIn": 893,
      "Ġuse": 894,
      "lean": 895,
      "face": 896,
      "Ġparam": 897,
      "Ġfinal": 898,
      "ug": 899,
      "ink": 900,
      "ĠW": 901,
      "ount": 902,
      "node": 903,
      "__": 904,
      "Ġlen": 905,
      "yn": 906,
      "pri": 907,
      "red": 908,
      "UR": 909,
      "ool": 910,
      "ĠThe": 911,
      "Ġtime": 912,
      "fix": 913,
      "size": 914,
      "mit": 915,
      "ĠH": 916,
      "LE": 917,
      "yp": 918,
      "';": 919,
      "irect": 920,
      "Ġpath": 921,
      "info": 922,
      "None": 923,
      "Ġ[]": 924,
      "Ġinstance": 925,
      "tribute": 926,
      "mand": 927,
      "ight": 928,
      "ge": 929,
      "Map": 930,
      "Ġcol": 931,
      "min": 932,
      "uct": 933,
      "Def": 934,
      ">>": 935,
      "OR": 936,
      "ĠB": 937,
      "av": 938,
      "eter": 939,
      "--------": 940,
      "oin": 941,
      "nd": 942,
      "lection": 943,
      "Field": 944,
      "ected": 945,
      "Context": 946,
      "ress": 947,
      "Response": 948,
      "Info": 949,
      "Ġrequest": 950,
      "bug": 951,
      "terface": 952,
      "Ġare": 953,
      "Ġvoid": 954,
      "ll": 955,
      "Ġ->": 956,
      "ings": 957,
      "ake": 958,
      "ME": 959,
      "uration": 960,
      "eters": 961,
      "ĠE": 962,
      "Ġen": 963,
      "ong": 964,
      "start": 965,
      "{}": 966,
      "place": 967,
      "ard": 968,
      "params": 969,
      "Mess": 970,
      "scri": 971,
      "Ġcur": 972,
      "Ġid": 973,
      "case": 974,
      "cord": 975,
      "Ġobject": 976,
      "ob": 977,
      "ther": 978,
      "ject": 979,
      "allback": 980,
      "arch": 981,
      "by": 982,
      "ffer": 983,
      "own": 984,
      "\":": 985,
      "Ġup": 986,
      "Ġraise": 987,
      "].": 988,
      "Qu": 989,
      "ep": 990,
      "Ġbu": 991,
      "vel": 992,
      "cept": 993,
      "Index": 994,
      "AR": 995,
      "anag": 996,
      "Ġser": 997,
      "line": 998,
      "Ġle": 999,
      "dir": 1000,
      "try": 1001,
      "odule": 1002,
      "word": 1003,
      "ainer": 1004,
      "Ġconfig": 1005,
      "Array": 1006,
      "ations": 1007,
      "AL": 1008,
      "ilder": 1009,
      "create": 1010,
      "ody": 1011,
      "nection": 1012,
      "empty": 1013,
      "Element": 1014,
      "ĠIf": 1015,
      "Add": 1016,
      "Ġnode": 1017,
      "Ġfore": 1018,
      "lete": 1019,
      "eturn": 1020,
      "ccess": 1021,
      "content": 1022,
      "andler": 1023,
      "prot": 1024,
      "map": 1025,
      "action": 1026,
      "object": 1027,
      "cri": 1028,
      "vate": 1029,
      "response": 1030,
      "est": 1031,
      "uld": 1032,
      "Log": 1033,
      "ree": 1034,
      "Ġdefault": 1035,
      "ypes": 1036,
      "SE": 1037,
      "match": 1038,
      "Ġ+=": 1039,
      "Ġforeach": 1040,
      "Arg": 1041,
      "oolean": 1042,
      "Message": 1043,
      "loat": 1044,
      "mt": 1045,
      "++": 1046,
      "Ġall": 1047,
      "Ġsub": 1048,
      "ren": 1049,
      "ould": 1050,
      "instance": 1051,
      "Ġbreak": 1052,
      "plate": 1053,
      "Ġ{}": 1054,
      "He": 1055,
      "='": 1056,
      "space": 1057,
      "Service": 1058,
      "null": 1059,
      "text": 1060,
      "table": 1061,
      "iss": 1062,
      "input": 1063,
      "py": 1064,
      "che": 1065,
      "quire": 1066,
      "Ġcan": 1067,
      "ĉĉĉĉĉĉ": 1068,
      "ĠG": 1069,
      "utes": 1070,
      "ists": 1071,
      "ponent": 1072,
      "DE": 1073,
      "Ġwill": 1074,
      "ĠU": 1075,
      "Ġmethod": 1076,
      "ific": 1077,
      "group": 1078,
      "eta": 1079,
      "ename": 1080,
      "tes": 1081,
      "ages": 1082,
      "ference": 1083,
      "lose": 1084,
      "ates": 1085,
      "ĠTr": 1086,
      "State": 1087,
      "move": 1088,
      "arsh": 1089,
      "wargs": 1090,
      "Ġapp": 1091,
      "ĠJ": 1092,
      "anager": 1093,
      "pi": 1094,
      "'.": 1095,
      "Event": 1096,
      "\\\\": 1097,
      "bo": 1098,
      "ctx": 1099,
      "ann": 1100,
      "[\"": 1101,
      "Ġro": 1102,
      "argument": 1103,
      "Ġcheck": 1104,
      "print": 1105,
      "local": 1106,
      "point": 1107,
      "()->": 1108,
      "ample": 1109,
      "Ġfield": 1110,
      "model": 1111,
      "par": 1112,
      "aders": 1113,
      "reg": 1114,
      "Ġcatch": 1115,
      "64": 1116,
      "protected": 1117,
      "ags": 1118,
      "rol": 1119,
      "ĠĠĠĠĠĠĠĠĠĠĠĠĠ": 1120,
      "->_": 1121,
      "message": 1122,
      "work": 1123,
      "Resource": 1124,
      "Im": 1125,
      "idth": 1126,
      "riter": 1127,
      "pts": 1128,
      "andle": 1129,
      "Code": 1130,
      "Client": 1131,
      "Ġcreate": 1132,
      "cket": 1133,
      "Ġresponse": 1134,
      "token": 1135,
      "ok": 1136,
      "Ġ!==": 1137,
      "Ġso": 1138,
      "yst": 1139,
      "method": 1140,
      "max": 1141,
      "event": 1142,
      "cond": 1143,
      "Ġ3": 1144,
      "ĠĠĠĠĠĠĠĠĠĠĠĠ": 1145,
      "Group": 1146,
      "qual": 1147,
      "Ġstart": 1148,
      "private": 1149,
      "Ġhe": 1150,
      "plit": 1151,
      "ilename": 1152,
      "iable": 1153,
      "Ġrange": 1154,
      "ĠTh": 1155,
      "ension": 1156,
      "Ġdi": 1157,
      "ttp": 1158,
      "=\"": 1159,
      "write": 1160,
      "ystem": 1161,
      "context": 1162,
      "Ġuser": 1163,
      "EN": 1164,
      "obj": 1165,
      "arent": 1166,
      "Result": 1167,
      "Item": 1168,
      "Ġne": 1169,
      "Form": 1170,
      "entity": 1171,
      "Ġu": 1172,
      "be": 1173,
      "defin": 1174,
      "abled": 1175,
      "state": 1176,
      "Input": 1177,
      "Out": 1178,
      "mat": 1179,
      "Me": 1180,
      "Ġcurrent": 1181,
      "Ġhas": 1182,
      "plo": 1183,
      "pect": 1184,
      "current": 1185,
      "ps": 1186,
      "Ġoptions": 1187,
      "Ġspec": 1188,
      "verr": 1189,
      "ION": 1190,
      "base": 1191,
      "``": 1192,
      "ite": 1193,
      "Of": 1194,
      "Ġindex": 1195,
      "vert": 1196,
      "ude": 1197,
      "trans": 1198,
      "adata": 1199,
      "til": 1200,
      "Query": 1201,
      "ocument": 1202,
      "Ġ*/": 1203,
      "ĠAr": 1204,
      "oint": 1205,
      "filter": 1206,
      "ape": 1207,
      "Token": 1208,
      "so": 1209,
      "Ġext": 1210,
      "Ġ''": 1211,
      "Ġinput": 1212,
      "entry": 1213,
      "User": 1214,
      "ook": 1215,
      "tributes": 1216,
      "etadata": 1217,
      "Not": 1218,
      "ify": 1219,
      "Ġno": 1220,
      "ĠRe": 1221,
      "With": 1222,
      "md": 1223,
      "Or": 1224,
      "verride": 1225,
      "\"]": 1226,
      "ref": 1227,
      "An": 1228,
      "arn": 1229,
      "chem": 1230,
      "len": 1231,
      "fore": 1232,
      "URL": 1233,
      "ified": 1234,
      "Size": 1235,
      "version": 1236,
      "irst": 1237,
      "Builder": 1238,
      "((": 1239,
      "Table": 1240,
      "'],": 1241,
      "final": 1242,
      "ync": 1243,
      "output": 1244,
      "db": 1245,
      "New": 1246,
      "let": 1247,
      "]);": 1248,
      "Ġ``": 1249,
      "====": 1250,
      "yle": 1251,
      "ffset": 1252,
      "ql": 1253,
      "AN": 1254,
      "check": 1255,
      "'t": 1256,
      "ature": 1257,
      "debug": 1258,
      "Stream": 1259,
      "Up": 1260,
      "ix": 1261,
      "perties": 1262,
      "##": 1263,
      "tra": 1264,
      "Ġoutput": 1265,
      "ote": 1266,
      "itle": 1267,
      "ĠReturn": 1268,
      "from": 1269,
      "ush": 1270,
      "ĠSet": 1271,
      "cre": 1272,
      "rame": 1273,
      "sed": 1274,
      "Ġmax": 1275,
      "ft": 1276,
      "values": 1277,
      "Ġcl": 1278,
      "iew": 1279,
      "SS": 1280,
      "Loc": 1281,
      "\";": 1282,
      "we": 1283,
      "attr": 1284,
      "inue": 1285,
      "ces": 1286,
      "client": 1287,
      "ĠĠĠĠĠĠĠĠĠĠĠĠĠĠĠĠĠĠĠĠĠĠĠĠĠĠĠĠĠĠĠ": 1288,
      "rl": 1289,
      "isset": 1290,
      "Ġpublic": 1291,
      "replace": 1292,
      "ĠV": 1293,
      "IT": 1294,
      "CT": 1295,
      "rig": 1296,
      "Method": 1297,
      "parse": 1298,
      "Ġclass": 1299,
      "rc": 1300,
      "mp": 1301,
      "Ġinstanceof": 1302,
      "Pre": 1303,
      "Property": 1304,
      "uble": 1305,
      "ron": 1306,
      "json": 1307,
      "chema": 1308,
      "Ġthrows": 1309,
      "annel": 1310,
      "Util": 1311,
      "gra": 1312,
      "Ġmatch": 1313,
      "ifier": 1314,
      "has": 1315,
      "From": 1316,
      "Content": 1317,
      "Ġitem": 1318,
      "Ġcontext": 1319,
      "dict": 1320,
      "join": 1321,
      "Ġline": 1322,
      "Options": 1323,
      "iled": 1324,
      "column": 1325,
      "ized": 1326,
      "Ġargs": 1327,
      "ĠTrue": 1328,
      "resource": 1329,
      "Ġnp": 1330,
      "ternal": 1331,
      "Status": 1332,
      "num": 1333,
      "Des": 1334,
      "\"\"\"": 1335,
      "lob": 1336,
      "arshall": 1337,
      "ackage": 1338,
      "parent": 1339,
      "tings": 1340,
      "its": 1341,
      "Tra": 1342,
      "Valid": 1343,
      "enc": 1344,
      "'])": 1345,
      "Ġstate": 1346,
      "ply": 1347,
      "http": 1348,
      "Ġelif": 1349,
      "Ġvalid": 1350,
      "ses": 1351,
      "pression": 1352,
      "Instance": 1353,
      "ally": 1354,
      "Manager": 1355,
      "mb": 1356,
      "Interface": 1357,
      "cs": 1358,
      "ateg": 1359,
      "ark": 1360,
      "Ġ});": 1361,
      "Ġreg": 1362,
      "ustom": 1363,
      "irectory": 1364,
      "label": 1365,
      "old": 1366,
      "Ġvalues": 1367,
      "Argument": 1368,
      "rap": 1369,
      "For": 1370,
      "order": 1371,
      "Ġcall": 1372,
      "ĠList": 1373,
      "dis": 1374,
      "Ġhave": 1375,
      "lat": 1376,
      "ution": 1377,
      "ĠObject": 1378,
      "actory": 1379,
      "'s": 1380,
      "Ġ**": 1381,
      "ments": 1382,
      "Ġass": 1383,
      "Model": 1384,
      "attern": 1385,
      "source": 1386,
      "limit": 1387,
      "Params": 1388,
      "auth": 1389,
      "erm": 1390,
      "Ġ4": 1391,
      "Ġexcept": 1392,
      "Ġos": 1393,
      "Ġmust": 1394,
      "vid": 1395,
      "ĠCon": 1396,
      "RO": 1397,
      "Ġmessage": 1398,
      "Ġparse": 1399,
      "view": 1400,
      "Ġtrans": 1401,
      "Count": 1402,
      "ner": 1403,
      "ister": 1404,
      "LO": 1405,
      "Trans": 1406,
      "sg": 1407,
      "update": 1408,
      "Default": 1409,
      "Ġread": 1410,
      "Ġboolean": 1411,
      "...": 1412,
      "fe": 1413,
      "True": 1414,
      "Ġevent": 1415,
      "Ġz": 1416,
      "Ġret": 1417,
      "cal": 1418,
      "ING": 1419,
      "ugin": 1420,
      "Override": 1421,
      "},": 1422,
      "ors": 1423,
      "pen": 1424,
      "ailed": 1425,
      "Sub": 1426,
      "are": 1427,
      "'))": 1428,
      "clude": 1429,
      "status": 1430,
      "keys": 1431,
      "Ġsup": 1432,
      "Sh": 1433,
      "PE": 1434,
      "ĠĊ": 1435,
      "iter": 1436,
      "ĠThis": 1437,
      "Attribute": 1438,
      "Ġnum": 1439,
      "Version": 1440,
      "\".": 1441,
      "[:": 1442,
      "ys": 1443,
      "target": 1444,
      "req": 1445,
      "lication": 1446,
      "Le": 1447,
      "([": 1448,
      "quired": 1449,
      "part": 1450,
      "Ġ>>>": 1451,
      "emplate": 1452,
      "etri": 1453,
      "itial": 1454,
      "ud": 1455,
      "Column": 1456,
      "element": 1457,
      "next": 1458,
      "Ġbool": 1459,
      "util": 1460,
      "Ġelement": 1461,
      "32": 1462,
      "Ġmake": 1463,
      "CE": 1464,
      "itch": 1465,
      "api": 1466,
      "Ġurl": 1467,
      "Output": 1468,
      "ptional": 1469,
      "UT": 1470,
      "exists": 1471,
      "Ġwhile": 1472,
      "kwargs": 1473,
      "Text": 1474,
      "Th": 1475,
      "Var": 1476,
      "Ġbase": 1477,
      "\\\"": 1478,
      "mer": 1479,
      "Entry": 1480,
      "Date": 1481,
      "AP": 1482,
      "cache": 1483,
      "Handler": 1484,
      "assword": 1485,
      "ld": 1486,
      "last": 1487,
      "lay": 1488,
      "Url": 1489,
      "ĠFalse": 1490,
      "tocol": 1491,
      "Ġprint": 1492,
      "raw": 1493,
      "ich": 1494,
      "Ġ'''": 1495,
      "wh": 1496,
      "iven": 1497,
      "cope": 1498,
      "block": 1499,
      "ual": 1500,
      "As": 1501,
      "ell": 1502,
      "Ġtarget": 1503,
      "sw": 1504,
      "CO": 1505,
      "call": 1506,
      "10": 1507,
      "sum": 1508,
      "ines": 1509,
      "stant": 1510,
      "Ġparent": 1511,
      "ia": 1512,
      "tag": 1513,
      "ĠĠĠĠĠĠĠĠĠĠ": 1514,
      "Ġlo": 1515,
      "Ġargument": 1516,
      "Ro": 1517,
      "split": 1518,
      "Ġquery": 1519,
      "ume": 1520,
      "Ġone": 1521,
      "Ġformat": 1522,
      "Str": 1523,
      "ract": 1524,
      "Ġcode": 1525,
      "False": 1526,
      "Ġresource": 1527,
      "mon": 1528,
      "Ġonly": 1529,
      "stat": 1530,
      "UL": 1531,
      "():": 1532,
      "Ġnumber": 1533,
      "DO": 1534,
      "pend": 1535,
      "Ġshould": 1536,
      "atab": 1537,
      "Ġdis": 1538,
      "page": 1539,
      "cript": 1540,
      "GE": 1541,
      "Ġfirst": 1542,
      "ĠReturns": 1543,
      "ie": 1544,
      "led": 1545,
      "Ġ((": 1546,
      "Ġmodel": 1547,
      "quals": 1548,
      "older": 1549,
      "FI": 1550,
      "SON": 1551,
      "child": 1552,
      "ding": 1553,
      "otal": 1554,
      "ish": 1555,
      "Ġ[];": 1556,
      "]))": 1557,
      "Reg": 1558,
      "Int": 1559,
      "service": 1560,
      "atabase": 1561,
      "Ġsource": 1562,
      "lib": 1563,
      "peration": 1564,
      "Ġpos": 1565,
      "Ġco": 1566,
      "pr": 1567,
      "Ġparams": 1568,
      "Ġfound": 1569,
      "link": 1570,
      "msg": 1571,
      "Ġpl": 1572,
      "Em": 1573,
      "Ġfloat": 1574,
      "'),": 1575,
      "Enabled": 1576,
      "Buffer": 1577,
      "Ġisinstance": 1578,
      "fir": 1579,
      "vider": 1580,
      "TY": 1581,
      "Ġus": 1582,
      "Ġtoken": 1583,
      "orage": 1584,
      "Ġtext": 1585,
      "Ġrun": 1586,
      "scription": 1587,
      "etwork": 1588,
      "fter": 1589,
      "do": 1590,
      "Ġmin": 1591,
      "ait": 1592,
      "Ġcount": 1593,
      "Ġ['": 1594,
      "fl": 1595,
      "Ġversion": 1596,
      "Ġ>=": 1597,
      "Format": 1598,
      "select": 1599,
      "find": 1600,
      "leg": 1601,
      "ission": 1602,
      "io": 1603,
      ".__": 1604,
      "gr": 1605,
      "Ġany": 1606,
      "omain": 1607,
      "host": 1608,
      "ible": 1609,
      "ĠĠĠĠĠĠĠĠĠĠĠĠĠĠ": 1610,
      "Ġother": 1611,
      "play": 1612,
      "Dir": 1613,
      "Ġ(!$": 1614,
      "][": 1615,
      "End": 1616,
      "post": 1617,
      "TT": 1618,
      "sent": 1619,
      "Filter": 1620,
      "01": 1621,
      "Line": 1622,
      "){": 1623,
      "struct": 1624,
      "teger": 1625,
      "char": 1626,
      "Ġac": 1627,
      "Ġcontinue": 1628,
      "byte": 1629,
      ":`": 1630,
      "module": 1631,
      "ause": 1632,
      "Ġnext": 1633,
      "Cache": 1634,
      "TE": 1635,
      "Ġcontent": 1636,
      "ke": 1637,
      "amp": 1638,
      "body": 1639,
      "items": 1640,
      "Ġwhen": 1641,
      "istr": 1642,
      "no": 1643,
      "Ġjson": 1644,
      "Ġgiven": 1645,
      "Ġ.=": 1646,
      "ĠEx": 1647,
      "ĠX": 1648,
      "Ġmap": 1649,
      "All": 1650,
      "ecute": 1651,
      "roller": 1652,
      "angu": 1653,
      "defined": 1654,
      "Auth": 1655,
      "remove": 1656,
      "ĠGet": 1657,
      "App": 1658,
      "Ġwhich": 1659,
      "ved": 1660,
      "Pos": 1661,
      "entifier": 1662,
      "'];": 1663,
      "Ġrow": 1664,
      "equals": 1665,
      "unk": 1666,
      "ML": 1667,
      "image": 1668,
      "root": 1669,
      "Invalid": 1670,
      "Source": 1671,
      "uri": 1672,
      "headers": 1673,
      "Ġpart": 1674,
      "conn": 1675,
      "LA": 1676,
      "process": 1677,
      "::$": 1678,
      "On": 1679,
      "Ġsize": 1680,
      "arser": 1681,
      "AME": 1682,
      "ĠĠĠĠĠĠĠĠĊ": 1683,
      "ormal": 1684,
      "Parameter": 1685,
      "Start": 1686,
      "ĉĉĉĉĉĉĉ": 1687,
      "Ġfilter": 1688,
      "Ġcolumn": 1689,
      "filename": 1690,
      "Ġused": 1691,
      "ization": 1692,
      "files": 1693,
      "getName": 1694,
      "Ġ'.": 1695,
      "Ġ'/": 1696,
      "']['": 1697,
      "ret": 1698,
      "apt": 1699,
      "ous": 1700,
      "indow": 1701,
      "Ġupdate": 1702,
      "ical": 1703,
      "true": 1704,
      "opy": 1705,
      "Ġlogger": 1706,
      "++)": 1707,
      "untime": 1708,
      "</": 1709,
      "container": 1710,
      "html": 1711,
      "\"))": 1712,
      "Ġtable": 1713,
      "Ent": 1714,
      "etch": 1715,
      "Ġdict": 1716,
      "fields": 1717,
      "Ġgroup": 1718,
      "store": 1719,
      "Ġprocess": 1720,
      "Ġappend": 1721,
      "mary": 1722,
      "Ġ<=": 1723,
      "session": 1724,
      "ĠValue": 1725,
      "Ġobj": 1726,
      "Ġdef": 1727,
      "ains": 1728,
      "Tag": 1729,
      "lation": 1730,
      "Header": 1731,
      "xy": 1732,
      "Ġclient": 1733,
      "ns": 1734,
      "Ġfmt": 1735,
      "enerate": 1736,
      "://": 1737,
      "ession": 1738,
      "CH": 1739,
      "uccess": 1740,
      "Ġfunc": 1741,
      "Ġerrors": 1742,
      "Dis": 1743,
      "Ġfind": 1744,
      "Ġbut": 1745,
      "sert": 1746,
      "Page": 1747,
      "Block": 1748,
      "View": 1749,
      "core": 1750,
      "itions": 1751,
      "close": 1752,
      "Ġhttp": 1753,
      "pected": 1754,
      "gment": 1755,
      "quence": 1756,
      "Ġservice": 1757,
      "offset": 1758,
      "run": 1759,
      "Ġdoes": 1760,
      "command": 1761,
      "elper": 1762,
      "Be": 1763,
      "Ġlast": 1764,
      "Child": 1765,
      "licy": 1766,
      "uple": 1767,
      "location": 1768,
      "Ġoff": 1769,
      "ready": 1770,
      "Action": 1771,
      "Defin": 1772,
      "Ġ_,": 1773,
      "ick": 1774,
      "ĠFile": 1775,
      "ification": 1776,
      "vis": 1777,
      "']))": 1778,
      "ĠSt": 1779,
      "Factory": 1780,
      "Ref": 1781,
      "Number": 1782,
      "build": 1783,
      "Ġchar": 1784,
      "12": 1785,
      "pare": 1786,
      "uster": 1787,
      "apping": 1788,
      "uto": 1789,
      "comp": 1790,
      "Cl": 1791,
      "Ġ5": 1792,
      "UN": 1793,
      "})": 1794,
      "right": 1795,
      "anguage": 1796,
      "ou": 1797,
      "uid": 1798,
      "toString": 1799,
      "Ġtra": 1800,
      "ATE": 1801,
      "posit": 1802,
      "ĠArray": 1803,
      "lobal": 1804,
      "Ġblock": 1805,
      "property": 1806,
      "printf": 1807,
      "Length": 1808,
      "Ġcal": 1809,
      "Configuration": 1810,
      "logger": 1811,
      "resh": 1812,
      "Sto": 1813,
      "kip": 1814,
      "Ġneed": 1815,
      "etail": 1816,
      "ĠException": 1817,
      "AD": 1818,
      "Ġad": 1819,
      "ported": 1820,
      "Ġlength": 1821,
      "width": 1822,
      "Null": 1823,
      "coding": 1824,
      "inter": 1825,
      "Ġcallback": 1826,
      "Image": 1827,
      "Update": 1828,
      "Ġ...": 1829,
      "Component": 1830,
      "Ġimage": 1831,
      "Entity": 1832,
      "Ad": 1833,
      "Ġval": 1834,
      "sign": 1835,
      "Ġwas": 1836,
      "Ġper": 1837,
      "(*": 1838,
      "queue": 1839,
      "delete": 1840,
      "ting": 1841,
      "Session": 1842,
      "stream": 1843,
      "xml": 1844,
      "ative": 1845,
      "Ġeach": 1846,
      "og": 1847,
      "Al": 1848,
      "OException": 1849,
      "Ġact": 1850,
      "']);": 1851,
      "server": 1852,
      "Connection": 1853,
      "ingle": 1854,
      "template": 1855,
      "Ġok": 1856,
      "UE": 1857,
      "Ġthen": 1858,
      "prefix": 1859,
      "Ġconst": 1860,
      "hash": 1861,
      "search": 1862,
      "ĠPro": 1863,
      "bs": 1864,
      "header": 1865,
      "first": 1866,
      "Ġmsg": 1867,
      "DB": 1868,
      "with": 1869,
      ".'": 1870,
      "Ġempty": 1871,
      "Ġref": 1872,
      "olve": 1873,
      "rix": 1874,
      "TYPE": 1875,
      "Ġlocal": 1876,
      "exp": 1877,
      "ination": 1878,
      "lower": 1879,
      "ĠCom": 1880,
      "title": 1881,
      "ures": 1882,
      "LI": 1883,
      "izer": 1884,
      "TTP": 1885,
      "record": 1886,
      "notation": 1887,
      "df": 1888,
      "Pl": 1889,
      "lot": 1890,
      "cle": 1891,
      "ĠĠĠĠĠĠĠĠĠĠĠĠĠĠĠĠĠ": 1892,
      "Rule": 1893,
      "Ġexist": 1894,
      "Access": 1895,
      "alt": 1896,
      "Local": 1897,
      "mod": 1898,
      "ector": 1899,
      "Spec": 1900,
      "ayload": 1901,
      "Ġload": 1902,
      "And": 1903,
      "----------------": 1904,
      "Ġchild": 1905,
      "Check": 1906,
      "Base": 1907,
      "ma": 1908,
      "Server": 1909,
      "Cur": 1910,
      "push": 1911,
      "gs": 1912,
      "Empty": 1913,
      ".\"\"\"": 1914,
      "raph": 1915,
      "stamp": 1916,
      "ArgumentException": 1917,
      "Part": 1918,
      "Ġentry": 1919,
      "undle": 1920,
      "Ġcommand": 1921,
      "Is": 1922,
      "ove": 1923,
      "pace": 1924,
      "NAME": 1925,
      "CON": 1926,
      "throw": 1927,
      "itor": 1928,
      "Values": 1929,
      "Create": 1930,
      "Row": 1931,
      "<?": 1932,
      "ids": 1933,
      "PO": 1934,
      "callback": 1935,
      "Ġwork": 1936,
      "****": 1937,
      "ava": 1938,
      "number": 1939,
      "Read": 1940,
      "ted": 1941,
      "sort": 1942,
      "can": 1943,
      "Ġwrite": 1944,
      "Container": 1945,
      "Ġimport": 1946,
      "IP": 1947,
      "16": 1948,
      "arr": 1949,
      "Ġ__": 1950,
      "ailable": 1951,
      "ĠWe": 1952,
      "Names": 1953,
      "Ġremove": 1954,
      ")))": 1955,
      "duct": 1956,
      "Ġinto": 1957,
      "Ġfiles": 1958,
      "Ġlong": 1959,
      "Command": 1960,
      "Lock": 1961,
      "cent": 1962,
      "level": 1963,
      "ategory": 1964,
      "ating": 1965,
      "names": 1966,
      "aw": 1967,
      "pository": 1968,
      "sql": 1969,
      "Ġ]": 1970,
      "Ġpoint": 1971,
      "Ġpri": 1972,
      "ĠDe": 1973,
      "Address": 1974,
      "cul": 1975,
      "iff": 1976,
      "Ġ};": 1977,
      "Utils": 1978,
      "Option": 1979,
      "ĠĠĠĠĠĠĠĠĠĠĠĠĠĠĠĠĠĠĠĠĠĠĠĠĠĠĠĠĠĠĠĠĠĠĠ": 1980,
      "Errorf": 1981,
      "viron": 1982,
      "No": 1983,
      "types": 1984,
      "ton": 1985,
      "Pri": 1986,
      "ient": 1987,
      "Ġspecified": 1988,
      "idd": 1989,
      "spec": 1990,
      "ĠValueError": 1991,
      "Ġiter": 1992,
      "encode": 1993,
      "Bytes": 1994,
      "Definition": 1995,
      "Ġax": 1996,
      "Ġfl": 1997,
      "Task": 1998,
      "Ġ/*": 1999,
      "Point": 2000,
      "FA": 2001,
      "gn": 2002,
      "way": 2003,
      "Ġlabel": 2004,
      "lice": 2005,
      "Ġauth": 2006,
      "NO": 2007,
      "Call": 2008,
      "ox": 2009,
      "KE": 2010,
      "Ġorder": 2011,
      "MA": 2012,
      "Ġq": 2013,
      "The": 2014,
      "Ġkwargs": 2015,
      "attributes": 2016,
      "If": 2017,
      "az": 2018,
      "float": 2019,
      "ignore": 2020,
      "Ġ\"\"": 2021,
      "Ġalready": 2022,
      "Types": 2023,
      "Co": 2024,
      "bin": 2025,
      "Next": 2026,
      "doc": 2027,
      "Ġback": 2028,
      "========": 2029,
      "SER": 2030,
      "Ġ/**": 2031,
      "tach": 2032,
      "exception": 2033,
      "Ġinter": 2034,
      "plode": 2035,
      "Ġoffset": 2036,
      "Writer": 2037,
      "connection": 2038,
      "Char": 2039,
      "MP": 2040,
      "box": 2041,
      "legal": 2042,
      "elp": 2043,
      "ias": 2044,
      "cor": 2045,
      "ities": 2046,
      "ĉĠĠĠ": 2047,
      "VER": 2048,
      "OP": 2049,
      "email": 2050,
      "lease": 2051,
      "]['": 2052,
      "Ġbyte": 2053,
      "Descri": 2054,
      "Ġreq": 2055,
      "ice": 2056,
      "ict": 2057,
      "Ġhandle": 2058,
      "DI": 2059,
      "Ġaction": 2060,
      "Body": 2061,
      "parameters": 2062,
      "Ġserver": 2063,
      "Link": 2064,
      "TR": 2065,
      "Match": 2066,
      "Return": 2067,
      "####": 2068,
      "ential": 2069,
      "ĠSe": 2070,
      "asses": 2071,
      "else": 2072,
      "Hash": 2073,
      "ency": 2074,
      "rule": 2075,
      "Ġsession": 2076,
      "andom": 2077,
      "Ġsw": 2078,
      "copy": 2079,
      "rypt": 2080,
      "Ġprotocol": 2081,
      "igh": 2082,
      "Level": 2083,
      "Function": 2084,
      "getS": 2085,
      "Ġdouble": 2086,
      "Ġsign": 2087,
      "sup": 2088,
      "Ġmodule": 2089,
      "Ġopts": 2090,
      "Record": 2091,
      "nown": 2092,
      "Ġbuild": 2093,
      "etime": 2094,
      "warn": 2095,
      "Ġtag": 2096,
      "formation": 2097,
      "rid": 2098,
      "tx": 2099,
      "Label": 2100,
      "issing": 2101,
      "ility": 2102,
      "ĠType": 2103,
      "false": 2104,
      "Ġrecord": 2105,
      "fg": 2106,
      "Ġtask": 2107,
      "Ġ6": 2108,
      "ched": 2109,
      "open": 2110,
      "Ġstatus": 2111,
      "shape": 2112,
      "Ġrule": 2113,
      "color": 2114,
      "Select": 2115,
      "ymb": 2116,
      "Trace": 2117,
      "Ġ},": 2118,
      "dat": 2119,
      "stants": 2120,
      "llegal": 2121,
      "Ġav": 2122,
      "ultip": 2123,
      "TH": 2124,
      "Ġap": 2125,
      "raint": 2126,
      "style": 2127,
      "handle": 2128,
      "pan": 2129,
      "down": 2130,
      "Ġheader": 2131,
      "address": 2132,
      "Ġparameters": 2133,
      "Ġroot": 2134,
      "idx": 2135,
      "sl": 2136,
      "buf": 2137,
      "send": 2138,
      "merge": 2139,
      "olume": 2140,
      "arshaller": 2141,
      "mode": 2142,
      "Ac": 2143,
      "Collection": 2144,
      "ging": 2145,
      "Ġcache": 2146,
      "Ġisset": 2147,
      "ymbol": 2148,
      "env": 2149,
      "Ġcor": 2150,
      "Rel": 2151,
      "()))": 2152,
      "ĠParam": 2153,
      "Ġthere": 2154,
      "tml": 2155,
      "buffer": 2156,
      "lowed": 2157,
      "ĠĠĠĠĠĠĠĠĠĠĠĠĠĠĠĠĠĠĠĠ": 2158,
      "olicy": 2159,
      "ulti": 2160,
      "Mode": 2161,
      "ek": 2162,
      "Metadata": 2163,
      "Ġvariable": 2164,
      "SI": 2165,
      "11": 2166,
      "Template": 2167,
      "Ġinst": 2168,
      "ique": 2169,
      "emp": 2170,
      "FF": 2171,
      "opts": 2172,
      "Ġopen": 2173,
      "very": 2174,
      "attribute": 2175,
      "tc": 2176,
      "NT": 2177,
      "top": 2178,
      "Rem": 2179,
      "php": 2180,
      "Job": 2181,
      "test": 2182,
      "ĠY": 2183,
      "task": 2184,
      "imple": 2185,
      "Ġparameter": 2186,
      "Ġdest": 2187,
      "river": 2188,
      "Package": 2189,
      "Ġarg": 2190,
      "ta": 2191,
      "Ġ--------": 2192,
      "Iter": 2193,
      "Ġ10": 2194,
      "Ġhost": 2195,
      "Ġarguments": 2196,
      "lem": 2197,
      "25": 2198,
      "cmd": 2199,
      "script": 2200,
      "Max": 2201,
      "Found": 2202,
      "break": 2203,
      "(_": 2204,
      "src": 2205,
      "ear": 2206,
      "Fields": 2207,
      "patch": 2208,
      "les": 2209,
      "Expression": 2210,
      "Marshaller": 2211,
      "Ġusing": 2212,
      "iginal": 2213,
      "Ġstream": 2214,
      "enu": 2215,
      "ĉĉĉĉĉĉĉĉ": 2216,
      "Ġfe": 2217,
      "pack": 2218,
      "cat": 2219,
      "vious": 2220,
      "Ġresults": 2221,
      "net": 2222,
      "We": 2223,
      "unter": 2224,
      "ĠUn": 2225,
      "Ġover": 2226,
      "ran": 2227,
      "enerator": 2228,
      "Ġold": 2229,
      "Ġdelete": 2230,
      "round": 2231,
      "mem": 2232,
      "Ġelseif": 2233,
      "ĠIOException": 2234,
      "Order": 2235,
      "fs": 2236,
      "curs": 2237,
      "istry": 2238,
      "pop": 2239,
      "Target": 2240,
      "position": 2241,
      "Ġcre": 2242,
      "Ġassert": 2243,
      "{$": 2244,
      "Reference": 2245,
      "Ġ(*": 2246,
      "000": 2247,
      "Ġconn": 2248,
      "'):": 2249,
      "Fl": 2250,
      "Exec": 2251,
      "Ġind": 2252,
      "Ġconnection": 2253,
      "etric": 2254,
      "ift": 2255,
      "Rout": 2256,
      "ĠAdd": 2257,
      "etails": 2258,
      "sing": 2259,
      "Prefix": 2260,
      "np": 2261,
      "init": 2262,
      "Listener": 2263,
      "AC": 2264,
      "Offset": 2265,
      "Byte": 2266,
      "Mem": 2267,
      "da": 2268,
      "Ġdate": 2269,
      "ĠJSON": 2270,
      "full": 2271,
      "where": 2272,
      "uf": 2273,
      "QL": 2274,
      "Ġinfo": 2275,
      "serial": 2276,
      "Ġbefore": 2277,
      "Provider": 2278,
      "Ġed": 2279,
      "ĠCheck": 2280,
      "Ext": 2281,
      "entic": 2282,
      "Ġbytes": 2283,
      "imension": 2284,
      "Ġfilename": 2285,
      "option": 2286,
      "Ġconvert": 2287,
      "Do": 2288,
      "04": 2289,
      "Ġpass": 2290,
      "thing": 2291,
      "gin": 2292,
      "ĠSer": 2293,
      "aining": 2294,
      "cy": 2295,
      "Ġ'';": 2296,
      "Properties": 2297,
      "namespace": 2298,
      "anges": 2299,
      "TER": 2300,
      "scal": 2301,
      "ics": 2302,
      "({": 2303,
      "bind": 2304,
      "Ġcomp": 2305,
      "Debug": 2306,
      "day": 2307,
      "Ġsort": 2308,
      "ends": 2309,
      "interface": 2310,
      "EX": 2311,
      "Write": 2312,
      "Ġ',": 2313,
      "ĠLO": 2314,
      "air": 2315,
      "Sup": 2316,
      "Ġag": 2317,
      "cho": 2318,
      "AB": 2319,
      "curity": 2320,
      "PI": 2321,
      "Host": 2322,
      "ĠCol": 2323,
      "Ġstrings": 2324,
      "('/": 2325,
      "Ġ8": 2326,
      "'));": 2327,
      "Ġexception": 2328,
      "dest": 2329,
      "Root": 2330,
      "parator": 2331,
      "Act": 2332,
      "SC": 2333,
      "ts": 2334,
      "iod": 2335,
      "ULT": 2336,
      "Per": 2337,
      "Ġpage": 2338,
      "Store": 2339,
      "idget": 2340,
      "Ġinitial": 2341,
      "Ġproperty": 2342,
      "ĠIllegal": 2343,
      "meta": 2344,
      "pth": 2345,
      "Reader": 2346,
      "the": 2347,
      "imum": 2348,
      "tmp": 2349,
      "Ġkeys": 2350,
      "atrix": 2351,
      "route": 2352,
      "Stat": 2353,
      "Work": 2354,
      "flow": 2355,
      "stack": 2356,
      "amples": 2357,
      "utton": 2358,
      "plugin": 2359,
      "bl": 2360,
      "PAR": 2361,
      "URI": 2362,
      "ED": 2363,
      "ning": 2364,
      "perator": 2365,
      "ĠClass": 2366,
      "gle": 2367,
      "medi": 2368,
      "oci": 2369,
      "Ġjob": 2370,
      "Ġrequired": 2371,
      "Ġsame": 2372,
      "like": 2373,
      "lish": 2374,
      "conds": 2375,
      "settings": 2376,
      "uch": 2377,
      "ĠMap": 2378,
      "height": 2379,
      "ĠID": 2380,
      "OL": 2381,
      "pc": 2382,
      "Ġselect": 2383,
      "Port": 2384,
      "ugh": 2385,
      "ermission": 2386,
      "ERR": 2387,
      "du": 2388,
      "Delete": 2389,
      "Document": 2390,
      "tree": 2391,
      "Ali": 2392,
      "nder": 2393,
      "Ġ('": 2394,
      "other": 2395,
      "rapper": 2396,
      "Parameters": 2397,
      "ĠNew": 2398,
      "Process": 2399,
      "Ġdirectory": 2400,
      "Ġ--": 2401,
      "vironment": 2402,
      "gram": 2403,
      "Ġstore": 2404,
      "any": 2405,
      "99": 2406,
      "opt": 2407,
      "Tree": 2408,
      "render": 2409,
      "Width": 2410,
      "press": 2411,
      "Http": 2412,
      "Lay": 2413,
      "Parent": 2414,
      "Ġ\"\\": 2415,
      "component": 2416,
      "Helper": 2417,
      "Keys": 2418,
      "HTTP": 2419,
      "ten": 2420,
      "ctionary": 2421,
      "EL": 2422,
      "Ġprovi": 2423,
      "Run": 2424,
      "thon": 2425,
      "(&": 2426,
      "frame": 2427,
      "ĠĠĠĠĊ": 2428,
      "assed": 2429,
      "matches": 2430,
      "Ġqu": 2431,
      "anged": 2432,
      "Ġbuffer": 2433,
      "Ġ'',": 2434,
      "switch": 2435,
      "left": 2436,
      "Ġport": 2437,
      "Ġsend": 2438,
      "Ġinterface": 2439,
      "vers": 2440,
      "Ġyou": 2441,
      "redential": 2442,
      "Ġoptional": 2443,
      "Ġ\"/": 2444,
      "gress": 2445,
      "Case": 2446,
      "metadata": 2447,
      "org": 2448,
      "getMessage": 2449,
      "Ġtri": 2450,
      "mote": 2451,
      "Ass": 2452,
      "TI": 2453,
      "Ġ's": 2454,
      "ached": 2455,
      "Ġmay": 2456,
      "rop": 2457,
      "job": 2458,
      "ared": 2459,
      "loud": 2460,
      "Back": 2461,
      "decode": 2462,
      "std": 2463,
      "Ġexp": 2464,
      "bytes": 2465,
      "18": 2466,
      "save": 2467,
      "defer": 2468,
      "Ġfin": 2469,
      "schema": 2470,
      "nap": 2471,
      "Variable": 2472,
      "roll": 2473,
      "static": 2474,
      "Ġmod": 2475,
      "Ġhash": 2476,
      "password": 2477,
      "errors": 2478,
      "Ġthan": 2479,
      "Ġattribute": 2480,
      "verse": 2481,
      "handler": 2482,
      "Ġnon": 2483,
      "Ġswitch": 2484,
      "arshal": 2485,
      "channel": 2486,
      ">();": 2487,
      "results": 2488,
      "sole": 2489,
      "Ġfields": 2490,
      "mark": 2491,
      "ĠParameters": 2492,
      "section": 2493,
      "Ġdb": 2494,
      "Ġafter": 2495,
      "plement": 2496,
      "Ġbeen": 2497,
      "utils": 2498,
      "Ag": 2499,
      "Ġbody": 2500,
      "AM": 2501,
      "straint": 2502,
      "Meta": 2503,
      "validate": 2504,
      "range": 2505,
      "Ġpy": 2506,
      "VAL": 2507,
      "Callback": 2508,
      "Frame": 2509,
      "Ġmode": 2510,
      "now": 2511,
      "Ġsearch": 2512,
      "aster": 2513,
      "ln": 2514,
      "Args": 2515,
      "Ġ'%": 2516,
      "pattern": 2517,
      "Logger": 2518,
      "ĠLOG": 2519,
      "Min": 2520,
      "custom": 2521,
      "ĠAn": 2522,
      "amb": 2523,
      "Load": 2524,
      "Ġcopy": 2525,
      "ero": 2526,
      "nil": 2527,
      "project": 2528,
      "Que": 2529,
      "ged": 2530,
      "Ġtemplate": 2531,
      "apter": 2532,
      "ux": 2533,
      "less": 2534,
      "cip": 2535,
      "ank": 2536,
      "actor": 2537,
      "plete": 2538,
      "Ġmore": 2539,
      "js": 2540,
      "shot": 2541,
      "istance": 2542,
      "Ġprefix": 2543,
      "Ġnames": 2544,
      "0000": 2545,
      "Ġver": 2546,
      "ODO": 2547,
      "lines": 2548,
      "(\\": 2549,
      "Attributes": 2550,
      "getValue": 2551,
      "bool": 2552,
      "aded": 2553,
      "Ġwhere": 2554,
      "Ġ];": 2555,
      "DING": 2556,
      "Inter": 2557,
      "Sign": 2558,
      "SH": 2559,
      "ices": 2560,
      "ince": 2561,
      "ĠprotocolMarshaller": 2562,
      "ublish": 2563,
      "ome": 2564,
      "document": 2565,
      "Ġregister": 2566,
      "ĠArgs": 2567,
      "parts": 2568,
      "Ġtuple": 2569,
      "go": 2570,
      "variable": 2571,
      "uture": 2572,
      "Num": 2573,
      "Fe": 2574,
      "ender": 2575,
      "esc": 2576,
      ".$": 2577,
      "dated": 2578,
      "Mod": 2579,
      "ĠCont": 2580,
      "ĠK": 2581,
      "ĠError": 2582,
      "ĠCh": 2583,
      "ertific": 2584,
      "Ġlink": 2585,
      "pute": 2586,
      "Ġ't": 2587,
      "ade": 2588,
      "execute": 2589,
      "Style": 2590,
      "Range": 2591,
      "afe": 2592,
      "Ġdocument": 2593,
      "Ġ----------": 2594,
      "ĠCreate": 2595,
      "itional": 2596,
      "Ġab": 2597,
      "register": 2598,
      "acter": 2599,
      "ater": 2600,
      "{},": 2601,
      ")]": 2602,
      "02": 2603,
      "ym": 2604,
      "Stack": 2605,
      "rintf": 2606,
      "Ġ'\\": 2607,
      "active": 2608,
      "Ġconfiguration": 2609,
      "ular": 2610,
      "abs": 2611,
      "rect": 2612,
      "cli": 2613,
      "ssages": 2614,
      "access": 2615,
      "columns": 2616,
      "rel": 2617,
      "API": 2618,
      "ynch": 2619,
      "Module": 2620,
      ".\"": 2621,
      "Ġpassed": 2622,
      "comment": 2623,
      "Ġtimeout": 2624,
      "Parser": 2625,
      "Ġsrc": 2626,
      "step": 2627,
      "Timeout": 2628,
      ".\");": 2629,
      "ploy": 2630,
      "ds": 2631,
      "KEY": 2632,
      "Ġ<<": 2633,
      "Ġsuper": 2634,
      "JSON": 2635,
      "mission": 2636,
      "Ġsome": 2637,
      "ii": 2638,
      "Ed": 2639,
      "Failed": 2640,
      "Ġcustom": 2641,
      "Obj": 2642,
      "Ġform": 2643,
      "Ġ\"%": 2644,
      "Files": 2645,
      "present": 2646,
      "wise": 2647,
      "ersist": 2648,
      "uffix": 2649,
      "System": 2650,
      "Ġtest": 2651,
      "Ġ{'": 2652,
      "sets": 2653,
      "ins": 2654,
      "Ġapi": 2655,
      "collection": 2656,
      "olver": 2657,
      "Ġent": 2658,
      "ward": 2659,
      "Len": 2660,
      "long": 2661,
      "Settings": 2662,
      "Conn": 2663,
      "etry": 2664,
      "Ġexec": 2665,
      "Ġlet": 2666,
      "Ġlevel": 2667,
      "Ġview": 2668,
      "properties": 2669,
      "Ġattr": 2670,
      "Ġ),": 2671,
      ")(": 2672,
      "Ġexists": 2673,
      "Ġtop": 2674,
      "ranch": 2675,
      "div": 2676,
      "ENT": 2677,
      "ĠData": 2678,
      "ority": 2679,
      "BIN": 2680,
      "Location": 2681,
      "Ġclose": 2682,
      "description": 2683,
      "tt": 2684,
      "Ġlimit": 2685,
      "Can": 2686,
      "Ġ()": 2687,
      "------": 2688,
      "timeout": 2689,
      "Height": 2690,
      "ories": 2691,
      "Identifier": 2692,
      "ynchron": 2693,
      "ĉĉĊ": 2694,
      "domain": 2695,
      "contains": 2696,
      "definition": 2697,
      "temp": 2698,
      "Build": 2699,
      "Parse": 2700,
      "Policy": 2701,
      "Unit": 2702,
      "++;": 2703,
      "`.": 2704,
      "napshot": 2705,
      "pha": 2706,
      "FAULT": 2707,
      "Ġ'\"": 2708,
      "ĠĠĠĠĠĠĠĠĠĠĠĠĠĠĠĠĠĠĠĠĠ": 2709,
      "PA": 2710,
      "Ġuint": 2711,
      "atures": 2712,
      "Close": 2713,
      "ambda": 2714,
      "PRO": 2715,
      "bar": 2716,
      "ump": 2717,
      "')->": 2718,
      "Position": 2719,
      "vok": 2720,
      "Operation": 2721,
      "Func": 2722,
      "Ġparser": 2723,
      "ĠEn": 2724,
      "ordin": 2725,
      "total": 2726,
      "ollow": 2727,
      "Ġcontainer": 2728,
      "fn": 2729,
      ">(": 2730,
      "cker": 2731,
      "Integer": 2732,
      "rs": 2733,
      "role": 2734,
      "Ġheaders": 2735,
      "trim": 2736,
      "Ġlay": 2737,
      "points": 2738,
      "Ġop": 2739,
      "riteria": 2740,
      "ĠArrayList": 2741,
      "Non": 2742,
      "imal": 2743,
      "children": 2744,
      "Ġstruct": 2745,
      "rt": 2746,
      "wait": 2747,
      "ports": 2748,
      "Ġreference": 2749,
      "ATION": 2750,
      "Ġtc": 2751,
      "wo": 2752,
      "IL": 2753,
      "oto": 2754,
      "cing": 2755,
      "Ġcmd": 2756,
      "Ids": 2757,
      "HP": 2758,
      "coder": 2759,
      "Color": 2760,
      "Queue": 2761,
      "=>": 2762,
      "cls": 2763,
      "([]": 2764,
      "heet": 2765,
      "Ġchannel": 2766,
      "Constants": 2767,
      "parser": 2768,
      "strip": 2769,
      "serv": 2770,
      "tags": 2771,
      "Ġctx": 2772,
      "invalid": 2773,
      "Ġreturned": 2774,
      "Ġignore": 2775,
      "Ġaddress": 2776,
      "ERROR": 2777,
      "icon": 2778,
      "Ġtemp": 2779,
      "Ġ..": 2780,
      "Warn": 2781,
      "Ġcomponent": 2782,
      "inary": 2783,
      "Ġoption": 2784,
      "Channel": 2785,
      "fmt": 2786,
      "GET": 2787,
      "Current": 2788,
      "24": 2789,
      "show": 2790,
      "alias": 2791,
      "ions": 2792,
      "ords": 2793,
      "ĠMath": 2794,
      "cause": 2795,
      "Ġ\",": 2796,
      "ĠTODO": 2797,
      "Ġdir": 2798,
      "ULL": 2799,
      "ely": 2800,
      "Ġfull": 2801,
      "ĠURL": 2802,
      "Ġdoc": 2803,
      "Ġinclude": 2804,
      "ĠAt": 2805,
      "()));": 2806,
      "Schema": 2807,
      "ultiple": 2808,
      "ĠFor": 2809,
      "Ġhere": 2810,
      "fetch": 2811,
      "isEmpty": 2812,
      "make": 2813,
      "20": 2814,
      "ason": 2815,
      "graph": 2816,
      "irection": 2817,
      "expected": 2818,
      "cale": 2819,
      "ĠSystem": 2820,
      "inst": 2821,
      "Ġreturns": 2822,
      "ertificate": 2823,
      "package": 2824,
      "'.$": 2825,
      "]:": 2826,
      "{})": 2827,
      "exec": 2828,
      "Ġtypes": 2829,
      "marshall": 2830,
      "extension": 2831,
      "Ġmem": 2832,
      "Directory": 2833,
      "Ġcolor": 2834,
      "Ġproject": 2835,
      "fin": 2836,
      "Ġjust": 2837,
      "Json": 2838,
      "ware": 2839,
      "Pool": 2840,
      "Ġfailed": 2841,
      "Loader": 2842,
      "crypt": 2843,
      "Last": 2844,
      "cer": 2845,
      "55": 2846,
      "change": 2847,
      "tokens": 2848,
      "rows": 2849,
      "});": 2850,
      "...)": 2851,
      "etrics": 2852,
      "med": 2853,
      "ĠKey": 2854,
      "connect": 2855,
      "cheme": 2856,
      "language": 2857,
      "application": 2858,
      "Ġinit": 2859,
      "Ġproperties": 2860,
      "Controller": 2861,
      "MO": 2862,
      "ween": 2863,
      "Ġits": 2864,
      "valu": 2865,
      "ĠĠĠĠĠĠĠĠĠĠĠĠĠĠĠĠĠĠĠĠĠĠĠĠĠĠĠĠĠĠĠĠĠĠĠĠĠĠĠ": 2866,
      "Ġnow": 2867,
      "Ġhandler": 2868,
      "andl": 2869,
      "ww": 2870,
      "Description": 2871,
      "pk": 2872,
      "stop": 2873,
      "Ġlook": 2874,
      "Ġdon": 2875,
      "ĠDefault": 2876,
      "prop": 2877,
      "umer": 2878,
      "ointer": 2879,
      "lta": 2880,
      "Ġ'd": 2881,
      "Ġfail": 2882,
      "continue": 2883,
      "over": 2884,
      "conf": 2885,
      "Ġreplace": 2886,
      "ivity": 2887,
      "Ġyield": 2888,
      "Namespace": 2889,
      "Ġdat": 2890,
      "dition": 2891,
      "bed": 2892,
      "Descript": 2893,
      "Ġwidth": 2894,
      "Ġph": 2895,
      "Ġsingle": 2896,
      "late": 2897,
      "Sprintf": 2898,
      "Async": 2899,
      "Api": 2900,
      "arguments": 2901,
      "Ġ})": 2902,
      "').": 2903,
      "Ġtotal": 2904,
      "Search": 2905,
      "username": 2906,
      "Ġdevice": 2907,
      "BINDING": 2908,
      "ĠĠĠĠĠĠĠĠĠĠĠĠĠĠĠĠĠĠĠĠĠĠ": 2909,
      "relation": 2910,
      "Ġrender": 2911,
      "ws": 2912,
      "Impl": 2913,
      "Ġprovided": 2914,
      "Ġitems": 2915,
      "Ġnormal": 2916,
      "UP": 2917,
      "Ġpo": 2918,
      "Ġnamespace": 2919,
      "device": 2920,
      "ä¸": 2921,
      "]]": 2922,
      "UM": 2923,
      "etween": 2924,
      "site": 2925,
      "Storage": 2926,
      "ĠĠĠĠĠĠĠĠĠĠĠĠĠĠĠĠĠĠ": 2927,
      "idden": 2928,
      "Wh": 2929,
      "ND": 2930,
      "(!": 2931,
      "Ġposition": 2932,
      "Ġsc": 2933,
      ")),": 2934,
      "ĠInvalid": 2935,
      "Ġavailable": 2936,
      "ancel": 2937,
      "\").": 2938,
      "Ġstep": 2939,
      "getId": 2940,
      "scope": 2941,
      "known": 2942,
      "15": 2943,
      "Ġcannot": 2944,
      "ĠNot": 2945,
      "rad": 2946,
      "ĠIllegalArgumentException": 2947,
      "Role": 2948,
      "nodes": 2949,
      "Ġgener": 2950,
      "Iterator": 2951,
      "Ġright": 2952,
      "ground": 2953,
      "locale": 2954,
      "her": 2955,
      "Ġscope": 2956,
      "Ġvalidate": 2957,
      "Ġmetadata": 2958,
      "Ġraw": 2959,
      "andard": 2960,
      "controller": 2961,
      "Ġobjects": 2962,
      "bound": 2963,
      "Ġsave": 2964,
      "Ġdictionary": 2965,
      "rough": 2966,
      "Ġ\"\",": 2967,
      "plot": 2968,
      "lv": 2969,
      "Cms": 2970,
      "greg": 2971,
      "exit": 2972,
      "Ġcls": 2973,
      "NotFound": 2974,
      "Ġ'<": 2975,
      "Ġpost": 2976,
      "OK": 2977,
      "ĠNo": 2978,
      "IG": 2979,
      "dk": 2980,
      "Application": 2981,
      "Ġtmp": 2982,
      "Ġgenerate": 2983,
      "af": 2984,
      "contents": 2985,
      "Ġsb": 2986,
      "card": 2987,
      "Ġaccess": 2988,
      "pol": 2989,
      "Ġpattern": 2990,
      "ries": 2991,
      "iler": 2992,
      "Ġstop": 2993,
      "className": 2994,
      "mount": 2995,
      "Ġinvalid": 2996,
      "igr": 2997,
      "eded": 2998,
      "Ġbo": 2999,
      "chedule": 3000,
      "-------": 3001,
      "Long": 3002,
      "manager": 3003,
      "Ġleft": 3004,
      "admin": 3005,
      "gen": 3006,
      "GER": 3007,
      "olution": 3008,
      "Uri": 3009,
      "stract": 3010,
      "oogle": 3011,
      "Ġdatabase": 3012,
      "Ġattributes": 3013,
      "Ġresp": 3014,
      "Ġbound": 3015,
      "LOG": 3016,
      "ĠDo": 3017,
      "otype": 3018,
      "Ġexecute": 3019,
      "insert": 3020,
      "iant": 3021,
      "ower": 3022,
      "Inner": 3023,
      "lang": 3024,
      "Ġ'_": 3025,
      "Ġbecause": 3026,
      "trace": 3027,
      ")->": 3028,
      "POST": 3029,
      "ĠĠĠĠĠĠĠĠĠĠĠĠĠĠĠĠĠĠĠĠĠĠĠĠ": 3030,
      "Any": 3031,
      "bit": 3032,
      "''": 3033,
      "Post": 3034,
      "vision": 3035,
      "endar": 3036,
      "Account": 3037,
      "Ġsprintf": 3038,
      "OT": 3039,
      "nel": 3040,
      "normal": 3041,
      ".',": 3042,
      "Bundle": 3043,
      "redentials": 3044,
      "ĠCms": 3045,
      "istory": 3046,
      "account": 3047,
      "structor": 3048,
      "STR": 3049,
      "untimeException": 3050,
      "Lim": 3051,
      "Addr": 3052,
      "apply": 3053,
      "14": 3054,
      "13": 3055,
      "sumer": 3056,
      "gor": 3057,
      "Items": 3058,
      "clear": 3059,
      "axis": 3060,
      "bers": 3061,
      "Extension": 3062,
      "vm": 3063,
      "Route": 3064,
      "Descriptor": 3065,
      "ET": 3066,
      "zone": 3067,
      "Ġbuf": 3068,
      "Del": 3069,
      "(\"\\": 3070,
      "erge": 3071,
      "Ġ'')": 3072,
      "Ġ7": 3073,
      "Change": 3074,
      "Msg": 3075,
      "\"),": 3076,
      "Ġentity": 3077,
      "ier": 3078,
      "ABLE": 3079,
      "Ġinformation": 3080,
      "ability": 3081,
      "Ġnodes": 3082,
      "Headers": 3083,
      "Device": 3084,
      "category": 3085,
      "ls": 3086,
      "Ġsequence": 3087,
      "include": 3088,
      "rtype": 3089,
      "Ġsum": 3090,
      "main": 3091,
      "19": 3092,
      "Pattern": 3093,
      "Ġmark": 3094,
      "<?>": 3095,
      "web": 3096,
      "only": 3097,
      "QU": 3098,
      "icode": 3099,
      "ired": 3100,
      "(\"%": 3101,
      "ĠTo": 3102,
      "Ġskip": 3103,
      "ng": 3104,
      "`,": 3105,
      "IS": 3106,
      "initial": 3107,
      "Ġthread": 3108,
      "ĠValid": 3109,
      "ĠDate": 3110,
      "ES": 3111,
      "resp": 3112,
      "ites": 3113,
      "reference": 3114,
      "cc": 3115,
      "prec": 3116,
      "Annotation": 3117,
      "gorith": 3118,
      "rency": 3119,
      "sprintf": 3120,
      "Ġframe": 3121,
      "ived": 3122,
      "[-": 3123,
      "Ġdown": 3124,
      "Ġpassword": 3125,
      "CA": 3126,
      "UID": 3127,
      "Transaction": 3128,
      "HT": 3129,
      "ection": 3130,
      "Ġallow": 3131,
      "Ġwant": 3132,
      "First": 3133,
      "ssible": 3134,
      "mask": 3135,
      "angle": 3136,
      "Ġcreated": 3137,
      "cell": 3138,
      "Cal": 3139,
      "Ġstyle": 3140,
      "alk": 3141,
      "Ġsys": 3142,
      "Ġstd": 3143,
      "LS": 3144,
      "head": 3145,
      "Ġpar": 3146,
      "ven": 3147,
      "Copy": 3148,
      "Ġdefined": 3149,
      "ĠInteger": 3150,
      "parameter": 3151,
      "foreach": 3152,
      "Exp": 3153,
      "ayment": 3154,
      "utf": 3155,
      "storage": 3156,
      "builder": 3157,
      "Ġschema": 3158,
      "my": 3159,
      "Ġlines": 3160,
      "Ġ,": 3161,
      "direct": 3162,
      "US": 3163,
      "'].": 3164,
      "Ġsuccess": 3165,
      "ges": 3166,
      "ĠĠĠĠĠĠĠĠĠĠĠĠĠĠĠĠĠĠĠĠĠĠĠĠĠĠĠĠ": 3167,
      "getClass": 3168,
      "Ġob": 3169,
      "Cre": 3170,
      "utable": 3171,
      "Ġ'-": 3172,
      "resolve": 3173,
      "Handle": 3174,
      "system": 3175,
      "09": 3176,
      "batch": 3177,
      "hether": 3178,
      "////": 3179,
      "tool": 3180,
      "Ġopt": 3181,
      "ither": 3182,
      "paths": 3183,
      "Ġem": 3184,
      "cr": 3185,
      "Doc": 3186,
      "lig": 3187,
      "substring": 3188,
      "ead": 3189,
      "Ġaxis": 3190,
      "leted": 3191,
      "Ġlocation": 3192,
      "generate": 3193,
      "ĠAPI": 3194,
      "Execution": 3195,
      "Ġdif": 3196,
      "33": 3197,
      "NS": 3198,
      "Ġunset": 3199,
      "directory": 3200,
      "itude": 3201,
      "Ġ'm": 3202,
      "Ġexisting": 3203,
      "author": 3204,
      "sv": 3205,
      "Ġelements": 3206,
      "TA": 3207,
      "Ġglobal": 3208,
      "Ġchange": 3209,
      "PAT": 3210,
      "failed": 3211,
      "cimal": 3212,
      "Ġidx": 3213,
      "Ġ$_": 3214,
      "Ġoriginal": 3215,
      "double": 3216,
      "culate": 3217,
      "wn": 3218,
      "qui": 3219,
      "Ġ\".": 3220,
      "alog": 3221,
      "Repository": 3222,
      "Ġthem": 3223,
      "identifier": 3224,
      "Ph": 3225,
      "Scope": 3226,
      "untry": 3227,
      "cret": 3228,
      "ship": 3229,
      "ĠConfig": 3230,
      "Ġplugin": 3231,
      "INT": 3232,
      "Ġheight": 3233,
      "Ġcollection": 3234,
      "Nodes": 3235,
      "Ġrepresent": 3236,
      "ĠHash": 3237,
      "Ġgo": 3238,
      "Cluster": 3239,
      "ĠUp": 3240,
      "ĠĠĠĠĠĠĠĠĠĠĠĠĠĠĠĠĠĠĠĠĠĠĠĠĠ": 3241,
      "ĠIm": 3242,
      "Join": 3243,
      "Mon": 3244,
      "Ġsettings": 3245,
      "Ġpack": 3246,
      "addr": 3247,
      "Ġar": 3248,
      "Database": 3249,
      "FO": 3250,
      "gnore": 3251,
      "CTION": 3252,
      "sm": 3253,
      "Ġchunk": 3254,
      "MENT": 3255,
      "dr": 3256,
      "Bound": 3257,
      "IC": 3258,
      "********": 3259,
      "Ġ[],": 3260,
      "Mapping": 3261,
      "Ġserial": 3262,
      "cp": 3263,
      "Ġdepend": 3264,
      "sor": 3265,
      "ful": 3266,
      "sure": 3267,
      ")$": 3268,
      "member": 3269,
      "Ġ],": 3270,
      "achine": 3271,
      "Ġshape": 3272,
      "oice": 3273,
      "boolean": 3274,
      "Vis": 3275,
      "Ġprevious": 3276,
      "entication": 3277,
      "indexOf": 3278,
      "bose": 3279,
      "network": 3280,
      "Ġtitle": 3281,
      "payload": 3282,
      "words": 3283,
      "Ġ\"'": 3284,
      "Ġsplit": 3285,
      "Ġnetwork": 3286,
      "Ġ-------": 3287,
      ".');": 3288,
      "Unable": 3289,
      "each": 3290,
      "Control": 3291,
      "DEFAULT": 3292,
      "ced": 3293,
      "success": 3294,
      "reshold": 3295,
      "encies": 3296,
      "romise": 3297,
      "css": 3298,
      "Internal": 3299,
      "Open": 3300,
      "cfg": 3301,
      "vars": 3302,
      "Plugin": 3303,
      "Ġextension": 3304,
      "Alias": 3305,
      "icate": 3306,
      "#{": 3307,
      "Ġhelp": 3308,
      "Ġ(\"": 3309,
      "Ġfn": 3310,
      "Ġsubstr": 3311,
      "Top": 3312,
      "ending": 3313,
      "Ġcolumns": 3314,
      "ĠCollection": 3315,
      "Ġdirect": 3316,
      "side": 3317,
      "eric": 3318,
      "Ġplot": 3319,
      "Bind": 3320,
      "Statement": 3321,
      "ĠNode": 3322,
      "gorithm": 3323,
      "span": 3324,
      "configuration": 3325,
      "Endpoint": 3326,
      "zip": 3327,
      "Network": 3328,
      "groups": 3329,
      "Ġexpected": 3330,
      "MS": 3331,
      "marshal": 3332,
      "Ġextends": 3333,
      "Ab": 3334,
      "Ġfinally": 3335,
      "imer": 3336,
      "lear": 3337,
      "olute": 3338,
      "ategy": 3339,
      "adding": 3340,
      "Tags": 3341,
      "auto": 3342,
      ")[": 3343,
      "println": 3344,
      "Ġpreg": 3345,
      "SQL": 3346,
      "eep": 3347,
      "ways": 3348,
      "Ġmarshall": 3349,
      "Results": 3350,
      "Ġwait": 3351,
      "Ġcons": 3352,
      "Ġundefined": 3353,
      "Us": 3354,
      "swith": 3355,
      ")):": 3356,
      "Ġ[])": 3357,
      "Ġlib": 3358,
      "required": 3359,
      "ĠZ": 3360,
      "ision": 3361,
      "Ġwindow": 3362,
      "Comp": 3363,
      "Ġextract": 3364,
      "getType": 3365,
      "slice": 3366,
      "diff": 3367,
      "Ġqueue": 3368,
      "Ġcalled": 3369,
      "layer": 3370,
      ".\")": 3371,
      "Ġip": 3372,
      "lative": 3373,
      "gments": 3374,
      "Ġtrim": 3375,
      "Ġloop": 3376,
      "_,": 3377,
      "Ġalso": 3378,
      "Limit": 3379,
      "verter": 3380,
      "Ġenv": 3381,
      "ured": 3382,
      "Ġ[$": 3383,
      "Ġbuilder": 3384,
      "clar": 3385,
      "Bean": 3386,
      "iddle": 3387,
      "Ġsp": 3388,
      "Ġtf": 3389,
      "Ġshow": 3390,
      "product": 3391,
      "aly": 3392,
      "ignment": 3393,
      "Ġstack": 3394,
      "Unlock": 3395,
      "ĠQ": 3396,
      "Ġrequire": 3397,
      "OPT": 3398,
      "tempt": 3399,
      "Ġtx": 3400,
      "Ġgraph": 3401,
      "Columns": 3402,
      "Ġtwo": 3403,
      "unit": 3404,
      "(['": 3405,
      "Custom": 3406,
      "display": 3407,
      "Box": 3408,
      "voke": 3409,
      "rigger": 3410,
      "Ġbetween": 3411,
      "Project": 3412,
      "Ġfollow": 3413,
      "Ġsure": 3414,
      "Ġhtml": 3415,
      "]*": 3416,
      "andid": 3417,
      "\">": 3418,
      "ĠRem": 3419,
      "Domain": 3420,
      "cour": 3421,
      "One": 3422,
      "]+": 3423,
      "PRE": 3424,
      "ĠLog": 3425,
      "Gener": 3426,
      "########": 3427,
      "ensure": 3428,
      "Ġvis": 3429,
      "notations": 3430,
      "Web": 3431,
      "Struct": 3432,
      "shift": 3433,
      "Registry": 3434,
      "book": 3435,
      "Ġmeta": 3436,
      "Each": 3437,
      "Ġprob": 3438,
      "Ġencode": 3439,
      "enter": 3440,
      "grid": 3441,
      "Ġpackage": 3442,
      "convert": 3443,
      "async": 3444,
      "grade": 3445,
      "PER": 3446,
      "chunk": 3447,
      "profile": 3448,
      "Ġ(\\": 3449,
      "Ġbatch": 3450,
      "FOR": 3451,
      "ily": 3452,
      "writer": 3453,
      "asic": 3454,
      "?(": 3455,
      "Ġtree": 3456,
      "Ġ9": 3457,
      "ĠĠĠĠĠĠĠĠĠĠĠĠĠĠĠĠĠĠĠĠĠĠĠĠĠĠ": 3458,
      "ĠSh": 3459,
      "resources": 3460,
      "tom": 3461,
      "ement": 3462,
      "dim": 3463,
      "Ġcell": 3464,
      "Permission": 3465,
      "Send": 3466,
      "}/": 3467,
      "17": 3468,
      "stats": 3469,
      "ises": 3470,
      "UB": 3471,
      "scale": 3472,
      "Ġdone": 3473,
      "FILE": 3474,
      "rary": 3475,
      "typeof": 3476,
      "Ġunless": 3477,
      "VE": 3478,
      "folder": 3479,
      "weight": 3480,
      "ernel": 3481,
      "Only": 3482,
      "respon": 3483,
      "Elements": 3484,
      "Agent": 3485,
      "ĠRequest": 3486,
      "BU": 3487,
      "So": 3488,
      "term": 3489,
      "22": 3490,
      "RA": 3491,
      "ĠĠĠĠĠĠĠĠĠĠĠĠĊ": 3492,
      "Ġremo": 3493,
      "utor": 3494,
      "ometry": 3495,
      "Sec": 3496,
      "andlers": 3497,
      "irt": 3498,
      "ynam": 3499,
      "Title": 3500,
      "Core": 3501,
      "pped": 3502,
      "escape": 3503,
      "Tx": 3504,
      "Ġsystem": 3505,
      "OD": 3506,
      "','": 3507,
      "actions": 3508,
      "Ġour": 3509,
      "vals": 3510,
      "Ġapply": 3511,
      "writ": 3512,
      "serialize": 3513,
      "tries": 3514,
      "database": 3515,
      "Ġoperation": 3516,
      "Space": 3517,
      "Resources": 3518,
      "ha": 3519,
      "Ġcontain": 3520,
      "Ġdf": 3521,
      "Red": 3522,
      "Constraint": 3523,
      "trie": 3524,
      "fra": 3525,
      "Sum": 3526,
      "ped": 3527,
      "ĠTime": 3528,
      "Ġimplement": 3529,
      "aml": 3530,
      "(\"/": 3531,
      "HE": 3532,
      "igest": 3533,
      "ian": 3534,
      "Ġlock": 3535,
      "ifiers": 3536,
      "Ġaccount": 3537,
      "global": 3538,
      "Ġ]);": 3539,
      "ensor": 3540,
      "Ġmatrix": 3541,
      "edia": 3542,
      "Button": 3543,
      "Serial": 3544,
      "Ġconf": 3545,
      "Cell": 3546,
      ")));": 3547,
      "cast": 3548,
      "Ġthey": 3549,
      "eners": 3550,
      "Ġio": 3551,
      "Ġdescription": 3552,
      "wd": 3553,
      "Ġ<-": 3554,
      "Ġpe": 3555,
      "ixed": 3556,
      "Ġfeature": 3557,
      "Thread": 3558,
      "ose": 3559,
      "returns": 3560,
      "mag": 3561,
      "Ġnumpy": 3562,
      "Tracing": 3563,
      "just": 3564,
      "Duration": 3565,
      "Ġdebug": 3566,
      "socket": 3567,
      "Ġ{};": 3568,
      "Proxy": 3569,
      "XML": 3570,
      "ĠĠĠĠĠĠĠĠĠĠĠĠĠĠĠĠĠĠĠĠĠĠĠĠĠĠĠĠĠ": 3571,
      "vlet": 3572,
      "Ġencoding": 3573,
      "Ġspace": 3574,
      "found": 3575,
      "report": 3576,
      "Ġword": 3577,
      "import": 3578,
      "Layout": 3579,
      "(',": 3580,
      "']:": 3581,
      "Bucket": 3582,
      "Ġexplode": 3583,
      "classes": 3584,
      "Ġmo": 3585,
      "ping": 3586,
      "engine": 3587,
      "Ġinsert": 3588,
      "ĠHttp": 3589,
      ":]": 3590,
      "man": 3591,
      "Ġsince": 3592,
      "br": 3593,
      "Raw": 3594,
      "Ġsupported": 3595,
      "Ġ100": 3596,
      "Ġ12": 3597,
      "light": 3598,
      "Ġlogging": 3599,
      ".')": 3600,
      "Ġ++": 3601,
      "gl": 3602,
      "iterator": 3603,
      "================": 3604,
      "pool": 3605,
      "Ġsee": 3606,
      "warning": 3607,
      "hook": 3608,
      "Password": 3609,
      "igin": 3610,
      "sec": 3611,
      "timestamp": 3612,
      "proxy": 3613,
      "olved": 3614,
      "labels": 3615,
      "ui": 3616,
      "flags": 3617,
      "ServiceResponse": 3618,
      "ĠAl": 3619,
      "upt": 3620,
      "ĠDE": 3621,
      "Ġcontains": 3622,
      "Ġpayload": 3623,
      "iteral": 3624,
      "}.": 3625,
      "80": 3626,
      "original": 3627,
      "irtual": 3628,
      "merce": 3629,
      "chain": 3630,
      "Ġimplode": 3631,
      "Ġweight": 3632,
      "after": 3633,
      "VALUE": 3634,
      "Ġsim": 3635,
      "ATOR": 3636,
      "supported": 3637,
      "Ġtags": 3638,
      "Ġfetch": 3639,
      "transform": 3640,
      "Ġresolve": 3641,
      "feature": 3642,
      "75": 3643,
      "Graph": 3644,
      "Ġthrough": 3645,
      "asure": 3646,
      "events": 3647,
      "Ġloc": 3648,
      "lick": 3649,
      "Ġmon": 3650,
      "rec": 3651,
      "Window": 3652,
      "datetime": 3653,
      "Ġcould": 3654,
      "Mo": 3655,
      "Locale": 3656,
      "Ġsample": 3657,
      "ipel": 3658,
      "fic": 3659,
      "Op": 3660,
      "gp": 3661,
      "DS": 3662,
      "Ġrece": 3663,
      "Ġ!$": 3664,
      "Ġprop": 3665,
      "DateTime": 3666,
      "CP": 3667,
      "expr": 3668,
      "Ġcontaining": 3669,
      "ateway": 3670,
      "Ġjava": 3671,
      "Ġsection": 3672,
      "Ġexpression": 3673,
      "cook": 3674,
      "azz": 3675,
      "Ġdtype": 3676,
      "scribe": 3677,
      "Render": 3678,
      "menu": 3679,
      "ialog": 3680,
      "ĠTrans": 3681,
      "=(": 3682,
      "depend": 3683,
      "Ġxml": 3684,
      "Ġpoints": 3685,
      "require": 3686,
      "board": 3687,
      "window": 3688,
      "Ġbegin": 3689,
      "force": 3690,
      "30": 3691,
      "dates": 3692,
      "Ġclean": 3693,
      "Ġinstead": 3694,
      "safe": 3695,
      "'][": 3696,
      "Attr": 3697,
      "media": 3698,
      "Ġsalt": 3699,
      "Ġsynchron": 3700,
      "Dest": 3701,
      "Ġdisplay": 3702,
      "uplic": 3703,
      "encoding": 3704,
      "pose": 3705,
      "acy": 3706,
      "ef": 3707,
      "ATA": 3708,
      "ottom": 3709,
      "Ġextra": 3710,
      "Ġgen": 3711,
      "rowser": 3712,
      "Ġuri": 3713,
      "Ġmissing": 3714,
      "cover": 3715,
      "Events": 3716,
      "Pointer": 3717,
      "/*": 3718,
      "Script": 3719,
      "ĠNULL": 3720,
      "provider": 3721,
      "Atom": 3722,
      "ĠMess": 3723,
      "ookie": 3724,
      "ĠStringBuilder": 3725,
      "plic": 3726,
      "edit": 3727,
      "clean": 3728,
      "ployment": 3729,
      "Ġcluster": 3730,
      "substr": 3731,
      "Ignore": 3732,
      "Ġsecond": 3733,
      "Ġput": 3734,
      "wner": 3735,
      "permission": 3736,
      "ĠField": 3737,
      "ius": 3738,
      "ferent": 3739,
      "zer": 3740,
      "Messages": 3741,
      "ĠTypeError": 3742,
      "Ġremote": 3743,
      "CK": 3744,
      "Double": 3745,
      "Required": 3746,
      "Active": 3747,
      "Ġ':": 3748,
      "NON": 3749,
      "ĠOn": 3750,
      "Generator": 3751,
      "TracingEnabled": 3752,
      "ĠIt": 3753,
      "ended": 3754,
      "prototype": 3755,
      "Ġ&$": 3756,
      "plates": 3757,
      "Ġ(_": 3758,
      "Ġtransform": 3759,
      "seq": 3760,
      "Sequence": 3761,
      "ertex": 3762,
      "isAny": 3763,
      "ually": 3764,
      "Ġdoesn": 3765,
      "Ġadded": 3766,
      ".*": 3767,
      "Ġrows": 3768,
      "Ġrel": 3769,
      "tachment": 3770,
      "Ġreflect": 3771,
      "Boolean": 3772,
      "messages": 3773,
      ".\",": 3774,
      "Fail": 3775,
      "Ġconsole": 3776,
      "objects": 3777,
      "icle": 3778,
      "ClassName": 3779,
      "getKey": 3780,
      "Ġsm": 3781,
      "Ifc": 3782,
      "reset": 3783,
      "Ġcb": 3784,
      "ĠResponse": 3785,
      "Ġlike": 3786,
      "dev": 3787,
      "}}": 3788,
      "lied": 3789,
      "ĠService": 3790,
      "Mark": 3791,
      "isAnyTracingEnabled": 3792,
      "clu": 3793,
      "--------------------------------": 3794,
      "fill": 3795,
      "preg": 3796,
      "AGE": 3797,
      "Ġenumer": 3798,
      "Db": 3799,
      "Av": 3800,
      "policy": 3801,
      "track": 3802,
      "Ġ16": 3803,
      "Ġparsed": 3804,
      "Enum": 3805,
      "Ġunit": 3806,
      "Has": 3807,
      "ling": 3808,
      "OM": 3809,
      "\\\",": 3810,
      "ca": 3811,
      "Ġrandom": 3812,
      "COL": 3813,
      ".(": 3814,
      "umb": 3815,
      "bro": 3816,
      "course": 3817,
      "Ġpair": 3818,
      "};": 3819,
      "year": 3820,
      "quote": 3821,
      "ĠUser": 3822,
      "AS": 3823,
      "ural": 3824,
      "Ġwarn": 3825,
      "used": 3826,
      "uint": 3827,
      "Relation": 3828,
      "ĠOptional": 3829,
      "jection": 3830,
      "cluded": 3831,
      "TIME": 3832,
      "real": 3833,
      "condition": 3834,
      "crement": 3835,
      "Volume": 3836,
      "oly": 3837,
      "sheet": 3838,
      "ĠIter": 3839,
      "filters": 3840,
      "extend": 3841,
      "Ġsorted": 3842,
      "\"));": 3843,
      "https": 3844,
      "Wrapper": 3845,
      "SET": 3846,
      "Remove": 3847,
      "ZE": 3848,
      "Ġeither": 3849,
      "month": 3850,
      "extra": 3851,
      "button": 3852,
      "Folder": 3853,
      "mapping": 3854,
      "elements": 3855,
      "WS": 3856,
      "Language": 3857,
      "ik": 3858,
      "ĠReg": 3859,
      "bucket": 3860,
      "expression": 3861,
      "non": 3862,
      "()),": 3863,
      "rout": 3864,
      "Ġmask": 3865,
      "ipeline": 3866,
      "forEach": 3867,
      "ĠĠĠĠĠĠĠĠĠĠĠĠĠĠĠĠĠĠĠĠĠĠĠĠĠĠĠĠĠĠ": 3868,
      "erson": 3869,
      "Left": 3870,
      "ĠÐ": 3871,
      "getP": 3872,
      "fp": 3873,
      "font": 3874,
      "35": 3875,
      "sample": 3876,
      "AX": 3877,
      "PATH": 3878,
      "Ġ[\"": 3879,
      "Ġbind": 3880,
      "Ġ'{": 3881,
      "ynt": 3882,
      "img": 3883,
      "ipe": 3884,
      "prev": 3885,
      "servable": 3886,
      "SO": 3887,
      "Ġbased": 3888,
      "Author": 3889,
      "random": 3890,
      "off": 3891,
      "||": 3892,
      "subject": 3893,
      "aint": 3894,
      "Ġday": 3895,
      "Xml": 3896,
      "Security": 3897,
      "commit": 3898,
      "Ġdet": 3899,
      "plet": 3900,
      "Describe": 3901,
      "lector": 3902,
      "InputStream": 3903,
      "ibility": 3904,
      "chan": 3905,
      "Ġ;": 3906,
      "ĠHTTP": 3907,
      "gener": 3908,
      "cessed": 3909,
      "Ġct": 3910,
      "created": 3911,
      "upper": 3912,
      "ffect": 3913,
      "depth": 3914,
      "itive": 3915,
      "Ġflag": 3916,
      "Profile": 3917,
      "ho": 3918,
      "Ġpk": 3919,
      "ithub": 3920,
      "ĠInput": 3921,
      "Chain": 3922,
      "Ġmain": 3923,
      "ty": 3924,
      "Ġparts": 3925,
      "remote": 3926,
      "Ġwhether": 3927,
      "Groups": 3928,
      "mine": 3929,
      "Ġbit": 3930,
      "Ġmatches": 3931,
      "mail": 3932,
      "uc": 3933,
      "Product": 3934,
      "ĠĠĠĠĠĠĠĠĠĠĠĠĠĠĠĠĠĠĠĠĠĠĠĠĠĠĠĠĠĠĠĠĠĠĠĠĠĠĠĠĠĠĠĠĠĠĠĠĠĠĠĠĠĠĠĠĠĠĠĠĠĠĠĠ": 3935,
      "owner": 3936,
      "java": 3937,
      "Ġwriter": 3938,
      "Ġaccept": 3939,
      "Float": 3940,
      "px": 3941,
      "INE": 3942,
      "Ġlayer": 3943,
      "getC": 3944,
      "cd": 3945,
      "alys": 3946,
      "methods": 3947,
      "Email": 3948,
      "Ġotherwise": 3949,
      "={": 3950,
      "ĠNote": 3951,
      "ĠMe": 3952,
      "optional": 3953,
      "Ne": 3954,
      "SION": 3955,
      "ators": 3956,
      "Ġ're": 3957,
      "}\"": 3958,
      "driver": 3959,
      "attrs": 3960,
      "Sync": 3961,
      "Errors": 3962,
      "Ġhttps": 3963,
      "operation": 3964,
      "Ġreset": 3965,
      "Day": 3966,
      "desc": 3967,
      "roy": 3968,
      "Kind": 3969,
      "Identity": 3970,
      "resses": 3971,
      "]|": 3972,
      "Interval": 3973,
      "isting": 3974,
      "Ap": 3975,
      "Ġroute": 3976,
      "endpoint": 3977,
      "/',": 3978,
      "ĠPre": 3979,
      "/%": 3980,
      "acters": 3981,
      "RI": 3982,
      "Ġwithout": 3983,
      "ĠParse": 3984,
      "cursive": 3985,
      "USER": 3986,
      "Ġ')": 3987,
      "Ġpossible": 3988,
      "before": 3989,
      "Ġstorage": 3990,
      "layout": 3991,
      "ROM": 3992,
      "Ġsql": 3993,
      "unique": 3994,
      "ibution": 3995,
      "tract": 3996,
      "Ġreport": 3997,
      "tolower": 3998,
      "lip": 3999,
      "ĠSee": 4000,
      "34": 4001,
      "voc": 4002,
      "alle": 4003,
      "ifest": 4004,
      "gine": 4005,
      "LECT": 4006,
      "IO": 4007,
      "loader": 4008,
      "Segment": 4009,
      "ĠConvert": 4010,
      "ĠUpdate": 4011,
      "Member": 4012,
      "inner": 4013,
      "Ġhasattr": 4014,
      ":\"": 4015,
      "getM": 4016,
      "rowable": 4017,
      "getInstance": 4018,
      "Sc": 4019,
      "Html": 4020,
      "allow": 4021,
      "short": 4022,
      "sWith": 4023,
      "][$": 4024,
      "ORY": 4025,
      "TraceComponent": 4026,
      "repo": 4027,
      "PC": 4028,
      "ĠInternal": 4029,
      "dt": 4030,
      "Ġ#{": 4031,
      ".,": 4032,
      "Ġet": 4033,
      "factory": 4034,
      "mbers": 4035,
      "100": 4036,
      "QUE": 4037,
      "Ġmultiple": 4038,
      "ptr": 4039,
      "(?": 4040,
      "ense": 4041,
      "ĠPy": 4042,
      "assign": 4043,
      "redirect": 4044,
      "Ġevents": 4045,
      "requ": 4046,
      "wer": 4047,
      "cap": 4048,
      "Ġallowed": 4049,
      "=%": 4050,
      "ane": 4051,
      "pid": 4052,
      "Ġlabels": 4053,
      "ClientException": 4054,
      "Ġexample": 4055,
      "ĠWh": 4056,
      "Batch": 4057,
      "skip": 4058,
      "Ġcorrect": 4059,
      "loaded": 4060,
      "Details": 4061,
      "then": 4062,
      "60": 4063,
      "yntax": 4064,
      "until": 4065,
      "udi": 4066,
      "ĠName": 4067,
      "stmt": 4068,
      "helper": 4069,
      "ives": 4070,
      "Ġge": 4071,
      "Ġpop": 4072,
      "models": 4073,
      "uuid": 4074,
      "ORT": 4075,
      "dices": 4076,
      "(__": 4077,
      "cb": 4078,
      "common": 4079,
      "etermine": 4080,
      "dispatch": 4081,
      "ĉĉĉĉĉĉĉĉĉ": 4082,
      "Ġforce": 4083,
      "HER": 4084,
      "Ġabs": 4085,
      "internal": 4086,
      "Ġinteger": 4087,
      "ases": 4088,
      "()).": 4089,
      "Ġendpoint": 4090,
      "parsed": 4091,
      "Ġapplication": 4092,
      "Ġdomain": 4093,
      "Step": 4094,
      "ĠPHP": 4095,
      "TO": 4096,
      "Validation": 4097,
      "amily": 4098,
      "Ġdimension": 4099,
      "verage": 4100,
      "lap": 4101,
      "Ġdatetime": 4102,
      "Ġdifferent": 4103,
      "gre": 4104,
      "Lower": 4105,
      "Ġ-=": 4106,
      "Ġterm": 4107,
      "Ġtrace": 4108,
      "oot": 4109,
      "Ġbucket": 4110,
      "sig": 4111,
      "arm": 4112,
      "Could": 4113,
      "ACK": 4114,
      "login": 4115,
      "Ġkeep": 4116,
      "ANG": 4117,
      "BO": 4118,
      "Pair": 4119,
      "Ġagain": 4120,
      "install": 4121,
      "XT": 4122,
      "Future": 4123,
      "Ġvariables": 4124,
      "ving": 4125,
      "Ġprofile": 4126,
      "ynamic": 4127,
      "counter": 4128,
      "(/": 4129,
      "Ġscript": 4130,
      "ĠUse": 4131,
      "lex": 4132,
      "Ġsent": 4133,
      "Ġtransaction": 4134,
      "flag": 4135,
      "Feature": 4136,
      "sequence": 4137,
      "DER": 4138,
      "help": 4139,
      "matrix": 4140,
      "sn": 4141,
      "formed": 4142,
      "fail": 4143,
      "Ġwrit": 4144,
      "Ġunique": 4145,
      "ĉĠĠĠĠĠĠĠ": 4146,
      "Ġsupport": 4147,
      "VI": 4148,
      "Ġnet": 4149,
      "sen": 4150,
      "Short": 4151,
      "'=>": 4152,
      "checked": 4153,
      "LASS": 4154,
      "anner": 4155,
      "losure": 4156,
      "alpha": 4157,
      "Exists": 4158,
      "vide": 4159,
      "Ġ>>": 4160,
      "<>();": 4161,
      "ifact": 4162,
      "Ġdecode": 4163,
      "Ġmerge": 4164,
      "Ġbl": 4165,
      "Adapter": 4166,
      "rules": 4167,
      "Driver": 4168,
      "symbol": 4169,
      "Ġrequests": 4170,
      "Ġfs": 4171,
      "Children": 4172,
      "Ġassoci": 4173,
      "Ġ(($": 4174,
      "``.": 4175,
      "criteria": 4176,
      "ĠIN": 4177,
      "After": 4178,
      "Ġcommon": 4179,
      "('%": 4180,
      "atio": 4181,
      "{\"": 4182,
      "Ver": 4183,
      "[:,": 4184,
      "ĠPath": 4185,
      "'re": 4186,
      "CS": 4187,
      "OF": 4188,
      "mar": 4189,
      "Idx": 4190,
      "ĠĠĠĠĠĠĠĠĠĠĠĠĠĠĠĠĠĠĠĠĠĠĠĠĠĠĠĠĠĠĠĠĠĠĠĠĠĠĠĠĠĠĠ": 4191,
      "Ġfollowing": 4192,
      "agent": 4193,
      "CHE": 4194,
      "rest": 4195,
      "users": 4196,
      "ross": 4197,
      "apped": 4198,
      "}'.": 4199,
      "Ġ'$": 4200,
      "cluster": 4201,
      "pag": 4202,
      "widget": 4203,
      "prepare": 4204,
      "ordinates": 4205,
      "ixel": 4206,
      "Ġmethods": 4207,
      "Timestamp": 4208,
      "Ġgrid": 4209,
      "DATE": 4210,
      "Ġ'/'": 4211,
      "goto": 4212,
      "Ġzip": 4213,
      "dist": 4214,
      "Zone": 4215,
      "Auto": 4216,
      "This": 4217,
      "Ġscale": 4218,
      "Ġyour": 4219,
      "ront": 4220,
      "acity": 4221,
      "Ġprev": 4222,
      "Ġreal": 4223,
      "ALL": 4224,
      "Down": 4225,
      "alysis": 4226,
      "Full": 4227,
      "Ġpresent": 4228,
      "uction": 4229,
      "]),": 4230,
      "Ġusername": 4231,
      "chedul": 4232,
      "aved": 4233,
      "tf": 4234,
      "slug": 4235,
      "Ġregion": 4236,
      "Ġbeing": 4237,
      "accept": 4238,
      "Stats": 4239,
      "gb": 4240,
      "trig": 4241,
      "SERVER": 4242,
      "Sort": 4243,
      "atic": 4244,
      "Ġchain": 4245,
      "pair": 4246,
      "seconds": 4247,
      "Ġdataset": 4248,
      "pass": 4249,
      "Ġ'#": 4250,
      "Comment": 4251,
      "nb": 4252,
      "ITY": 4253,
      "\\'": 4254,
      "defaults": 4255,
      "wrap": 4256,
      "Ġactive": 4257,
      "IF": 4258,
      "Ġevery": 4259,
      "Ġproxy": 4260,
      "latform": 4261,
      "Bl": 4262,
      "Admin": 4263,
      "Ðµ": 4264,
      "Ġpool": 4265,
      "bservable": 4266,
      "isDebug": 4267,
      "Ġdistance": 4268,
      "ECT": 4269,
      "region": 4270,
      "Ġdestination": 4271,
      "rag": 4272,
      "GroupName": 4273,
      "delta": 4274,
      "leep": 4275,
      "ulate": 4276,
      "Ġactual": 4277,
      "ves": 4278,
      "Ġretrie": 4279,
      "Ġprivate": 4280,
      "Ġensure": 4281,
      "(-": 4282,
      "sk": 4283,
      "startswith": 4284,
      "'][$": 4285,
      "\"):": 4286,
      "LOW": 4287,
      "ategories": 4288,
      "dtype": 4289,
      "ĠRemove": 4290,
      "Ġmapping": 4291,
      "Ġtokens": 4292,
      "Ġplace": 4293,
      "Ġbinary": 4294,
      "Art": 4295,
      "Rows": 4296,
      "ested": 4297,
      "ĠApp": 4298,
      "Total": 4299,
      "orter": 4300,
      "Ġjoin": 4301,
      "Engine": 4302,
      "ube": 4303,
      "Ġpaths": 4304,
      "conv": 4305,
      "ighb": 4306,
      "Ġspecific": 4307,
      "sync": 4308,
      "Ġmessages": 4309,
      "Ġclear": 4310,
      "rv": 4311,
      "sys": 4312,
      "creen": 4313,
      "arge": 4314,
      "ĠSdk": 4315,
      "compare": 4316,
      "Ð°": 4317,
      "perations": 4318,
      "lambda": 4319,
      "alled": 4320,
      "flat": 4321,
      "inte": 4322,
      "ĠIP": 4323,
      "Ġsocket": 4324,
      ".(*": 4325,
      "MM": 4326,
      "åı": 4327,
      "Ġauto": 4328,
      "utom": 4329,
      "Condition": 4330,
      "bundle": 4331,
      "Ġneeded": 4332,
      "getProperty": 4333,
      "ãģ": 4334,
      "enabled": 4335,
      "Ġgetattr": 4336,
      "Parts": 4337,
      "HERE": 4338,
      "const": 4339,
      "primary": 4340,
      "look": 4341,
      "reader": 4342,
      "center": 4343,
      "Tri": 4344,
      "Resolver": 4345,
      "lin": 4346,
      "Selector": 4347,
      "secret": 4348,
      "SIZE": 4349,
      "&&": 4350,
      "extract": 4351,
      "havi": 4352,
      "Category": 4353,
      "\"],": 4354,
      "Ġsynchronized": 4355,
      "MAX": 4356,
      "DATA": 4357,
      "getAttribute": 4358,
      "Warnings": 4359,
      "Right": 4360,
      "Ġenumerate": 4361,
      "Ġconnect": 4362,
      "ider": 4363,
      "Ġlat": 4364,
      "publish": 4365,
      "Cannot": 4366,
      "Matrix": 4367,
      "ĠĠĠĠĉ": 4368,
      ",$": 4369,
      "Pack": 4370,
      "NOT": 4371,
      "anel": 4372,
      "}'": 4373,
      "ferred": 4374,
      "maining": 4375,
      "proto": 4376,
      "ĠSdkClientException": 4377,
      "tab": 4378,
      "eam": 4379,
      "concat": 4380,
      "Term": 4381,
      "td": 4382,
      "ilt": 4383,
      "interval": 4384,
      "control": 4385,
      "ĠNumber": 4386,
      "Flag": 4387,
      "Ġshort": 4388,
      "Ġchildren": 4389,
      "ĠQuery": 4390,
      "ĠAND": 4391,
      "validator": 4392,
      "ĠOut": 4393,
      "]=": 4394,
      "Ġalways": 4395,
      "mu": 4396,
      "Split": 4397,
      "56": 4398,
      "rate": 4399,
      "Ġrunning": 4400,
      "Transform": 4401,
      "loop": 4402,
      "Ġstrlen": 4403,
      "PUT": 4404,
      "ĠXML": 4405,
      "Menu": 4406,
      "ĠMessage": 4407,
      "repository": 4408,
      "ĠBoolean": 4409,
      "sb": 4410,
      "assert": 4411,
      "precated": 4412,
      "ied": 4413,
      "theme": 4414,
      "Use": 4415,
      "Ġzero": 4416,
      "Ġboth": 4417,
      "thread": 4418,
      "isEntry": 4419,
      "Ġecho": 4420,
      "Certificate": 4421,
      "Ġexit": 4422,
      "Print": 4423,
      "IOException": 4424,
      "PARATOR": 4425,
      "Ġidentifier": 4426,
      "(@": 4427,
      ")/": 4428,
      "Ð¾": 4429,
      "dst": 4430,
      "Ġcomment": 4431,
      "isEntryEnabled": 4432,
      "LETE": 4433,
      "Ġthese": 4434,
      "ĠRuntimeException": 4435,
      ">';": 4436,
      "operator": 4437,
      "36": 4438,
      "ale": 4439,
      "Ġremoved": 4440,
      "akes": 4441,
      "Ġcharacter": 4442,
      "50": 4443,
      "ĠAttribute": 4444,
      "Ġrole": 4445,
      "Expr": 4446,
      "flush": 4447,
      "txt": 4448,
      "Ġdel": 4449,
      "getPro": 4450,
      "strict": 4451,
      "ĠLoc": 4452,
      "Ġwithin": 4453,
      "Wrap": 4454,
      "ading": 4455,
      "Ġli": 4456,
      "ĠJson": 4457,
      "MAT": 4458,
      "Success": 4459,
      "Ġman": 4460,
      "Ġseconds": 4461,
      "\"])": 4462,
      "AND": 4463,
      "Depend": 4464,
      "andidate": 4465,
      "DIR": 4466,
      "Region": 4467,
      "çļ": 4468,
      "area": 4469,
      "isDebugEnabled": 4470,
      "DF": 4471,
      "Ġinternal": 4472,
      "ycle": 4473,
      "InvalidArgumentException": 4474,
      "Unmarshal": 4475,
      "Ġbel": 4476,
      "çļĦ": 4477,
      "oft": 4478,
      "Ġresources": 4479,
      "mean": 4480,
      "Ġreader": 4481,
      "question": 4482,
      "40": 4483,
      "period": 4484,
      "firm": 4485,
      "Socket": 4486,
      "complete": 4487,
      "Paths": 4488,
      "transaction": 4489,
      "SEPARATOR": 4490,
      "struction": 4491,
      "Widget": 4492,
      "ĠDB": 4493,
      "Public": 4494,
      "cm": 4495,
      "quires": 4496,
      "Ġedge": 4497,
      "Multi": 4498,
      "Layer": 4499,
      "utdown": 4500,
      "valueOf": 4501,
      "ĠAss": 4502,
      "Counter": 4503,
      "27": 4504,
      "Ġtheir": 4505,
      "EXT": 4506,
      "Ġweb": 4507,
      "iddleware": 4508,
      "Ġoc": 4509,
      ")).": 4510,
      "Ġcorrespon": 4511,
      "ident": 4512,
      "Ġcfg": 4513,
      "cu": 4514,
      "izes": 4515,
      "Ġupdated": 4516,
      "archive": 4517,
      "Ġvolume": 4518,
      "Ġpermission": 4519,
      "Ġ[]*": 4520,
      "Remote": 4521,
      "ĠRE": 4522,
      "SP": 4523,
      "Unknown": 4524,
      "charAt": 4525,
      "Ġiss": 4526,
      "Ġ));": 4527,
      "Ġwould": 4528,
      "hex": 4529,
      "Ġ'\\\\": 4530,
      "Ġ'*": 4531,
      "trigger": 4532,
      "=[": 4533,
      "ues": 4534,
      "-+": 4535,
      "Ġsl": 4536,
      "Global": 4537,
      "dom": 4538,
      "holder": 4539,
      "Ġ{$": 4540,
      "vas": 4541,
      "Ġdiff": 4542,
      "modules": 4543,
      "ressed": 4544,
      "uring": 4545,
      "Ġmy": 4546,
      "Dict": 4547,
      "Ġentries": 4548,
      "selected": 4549,
      "Encode": 4550,
      "second": 4551,
      "gative": 4552,
      "Ge": 4553,
      "atom": 4554,
      ")}": 4555,
      "alth": 4556,
      "()]": 4557,
      "OUT": 4558,
      "pod": 4559,
      "Ġatom": 4560,
      "($_": 4561,
      "pleted": 4562,
      "Ġsig": 4563,
      "Ġsegment": 4564,
      "39": 4565,
      "logy": 4566,
      "HTML": 4567,
      "Methods": 4568,
      "udio": 4569,
      "ĠRead": 4570,
      "stim": 4571,
      "Ġflags": 4572,
      "hs": 4573,
      "ished": 4574,
      "Fin": 4575,
      "PT": 4576,
      "Ġlistener": 4577,
      "ze": 4578,
      "cert": 4579,
      "Ġ\")": 4580,
      "Ġcommit": 4581,
      "OutputStream": 4582,
      "Servlet": 4583,
      "Ġrest": 4584,
      "ĠForm": 4585,
      "Ġsymbol": 4586,
      "Initial": 4587,
      "ARN": 4588,
      "claration": 4589,
      "200": 4590,
      "tuple": 4591,
      "Ġorg": 4592,
      "scriptor": 4593,
      "STAT": 4594,
      "Encoding": 4595,
      "ops": 4596,
      "Ġtimestamp": 4597,
      "Uint": 4598,
      "available": 4599,
      "export": 4600,
      "Ġcompute": 4601,
      "salt": 4602,
      "Ġenvironment": 4603,
      "Ġemail": 4604,
      "PARAM": 4605,
      ":%": 4606,
      "38": 4607,
      "upload": 4608,
      "Ptr": 4609,
      "RECT": 4610,
      "cursor": 4611,
      "Ġhigh": 4612,
      "Ġperform": 4613,
      "Ġassign": 4614,
      "Ġabout": 4615,
      "Flags": 4616,
      "Ġchanged": 4617,
      ">'": 4618,
      "Strategy": 4619,
      "cade": 4620,
      "Ġsite": 4621,
      "Pe": 4622,
      "Ġrad": 4623,
      "Arguments": 4624,
      "SELECT": 4625,
      "Ġstats": 4626,
      "Ġ\"+": 4627,
      "Ġchanges": 4628,
      "ĠRa": 4629,
      "Orig": 4630,
      "Before": 4631,
      "gest": 4632,
      "www": 4633,
      "allowed": 4634,
      "Rules": 4635,
      "errupt": 4636,
      "THOD": 4637,
      "argin": 4638,
      "while": 4639,
      "UTF": 4640,
      "destination": 4641,
      "Cap": 4642,
      "pb": 4643,
      "Tool": 4644,
      "EClass": 4645,
      "Secret": 4646,
      "conditions": 4647,
      "ĠValidate": 4648,
      "Snapshot": 4649,
      "peat": 4650,
      "Ġarr": 4651,
      "__,": 4652,
      "Ġ\"\";": 4653,
      "IM": 4654,
      "math": 4655,
      "emit": 4656,
      "istration": 4657,
      "Objects": 4658,
      "ĠEvent": 4659,
      "CR": 4660,
      "callable": 4661,
      "cookie": 4662,
      "Media": 4663,
      "('\\": 4664,
      "åĪ": 4665,
      "igit": 4666,
      "CLASS": 4667,
      "aj": 4668,
      "Ġmean": 4669,
      "dirname": 4670,
      "ASE": 4671,
      "icro": 4672,
      "anization": 4673,
      "Ġsignature": 4674,
      "Ġawait": 4675,
      "SSION": 4676,
      "Ġcert": 4677,
      "Ġwhat": 4678,
      "details": 4679,
      "mac": 4680,
      "regex": 4681,
      "Missing": 4682,
      "Ġmatching": 4683,
      "ĠMethod": 4684,
      "Ġ\"-": 4685,
      "END": 4686,
      "Ġbest": 4687,
      "FIX": 4688,
      "istics": 4689,
      "stdout": 4690,
      "Ġident": 4691,
      "Cloud": 4692,
      "igration": 4693,
      "illis": 4694,
      "covery": 4695,
      "Display": 4696,
      "Conf": 4697,
      "previous": 4698,
      "ĠSQL": 4699,
      "Sql": 4700,
      "velo": 4701,
      "Ġdst": 4702,
      "variables": 4703,
      "Ġ([]": 4704,
      "annotation": 4705,
      "Metric": 4706,
      "ordinate": 4707,
      "ones": 4708,
      "06": 4709,
      "Ġrelation": 4710,
      "Ġasync": 4711,
      "Ġdelta": 4712,
      "SA": 4713,
      "getRequest": 4714,
      "HO": 4715,
      "Vector": 4716,
      "Suppress": 4717,
      "BUG": 4718,
      "Ġ//$": 4719,
      "edge": 4720,
      "Ġ200": 4721,
      "ets": 4722,
      "protocol": 4723,
      "(**": 4724,
      "77": 4725,
      "statement": 4726,
      "Ġfig": 4727,
      "sq": 4728,
      "vt": 4729,
      "Desc": 4730,
      "Ġfolder": 4731,
      "eries": 4732,
      "Rece": 4733,
      "Ġrelative": 4734,
      "256": 4735,
      "transl": 4736,
      "Mapper": 4737,
      "Ġmd": 4738,
      "ĠMake": 4739,
      "constraint": 4740,
      "Ġindent": 4741,
      "ĠFROM": 4742,
      "Test": 4743,
      "drop": 4744,
      "PHP": 4745,
      "unch": 4746,
      "anaged": 4747,
      "Ġselected": 4748,
      "prom": 4749,
      "getData": 4750,
      "Filename": 4751,
      "ness": 4752,
      "ĠExample": 4753,
      "URE": 4754,
      "ĠSib": 4755,
      "NotFoundException": 4756,
      "Tokens": 4757,
      "metric": 4758,
      "Ġmaximum": 4759,
      "Are": 4760,
      "exc": 4761,
      "lier": 4762,
      "atalog": 4763,
      "clus": 4764,
      "ĠLong": 4765,
      "Ġmemory": 4766,
      "ĠĠĠĠĠĠĠĠĠĠĠĠĠĠĠĠĠĠĠĠĠĠĠĠĠĠĠĠĠĠĠĠĠ": 4767,
      "dot": 4768,
      "Ġuntil": 4769,
      "binary": 4770,
      "ĠArg": 4771,
      "ĠObservable": 4772,
      "Section": 4773,
      "28": 4774,
      "${": 4775,
      "/{": 4776,
      "GP": 4777,
      "Ġappro": 4778,
      "begin": 4779,
      "ited": 4780,
      "Ġunder": 4781,
      "single": 4782,
      "ĠLOGGER": 4783,
      "FileName": 4784,
      "Ġspecify": 4785,
      "dec": 4786,
      "Ġcontrol": 4787,
      "VERSION": 4788,
      "CODE": 4789,
      "Modified": 4790,
      "plex": 4791,
      "compile": 4792,
      "done": 4793,
      "rand": 4794,
      "getPath": 4795,
      "det": 4796,
      "QUEST": 4797,
      "Ġsignal": 4798,
      "clone": 4799,
      "strap": 4800,
      "cloud": 4801,
      "kind": 4802,
      "Rate": 4803,
      "Ġauthor": 4804,
      "Ġrequested": 4805,
      "Ġtrigger": 4806,
      "Ġvalidation": 4807,
      "multi": 4808,
      "cheduler": 4809,
      "cached": 4810,
      "Ġdefaults": 4811,
      "ĠSibTr": 4812,
      "cas": 4813,
      "git": 4814,
      "Ġfra": 4815,
      "Ġcursor": 4816,
      "*/": 4817,
      "Put": 4818,
      "Ġmulti": 4819,
      "Pod": 4820,
      "ĠOpen": 4821,
      "ĠByte": 4822,
      "Classes": 4823,
      "IB": 4824,
      "draw": 4825,
      "UUID": 4826,
      "props": 4827,
      "ĠUtil": 4828,
      "Ġlower": 4829,
      "cons": 4830,
      "Ġexc": 4831,
      "Register": 4832,
      "plat": 4833,
      "El": 4834,
      "Sw": 4835,
      "xff": 4836,
      "Report": 4837,
      "scheme": 4838,
      "segment": 4839,
      "Ġsuch": 4840,
      "Notification": 4841,
      "METHOD": 4842,
      "FIEL": 4843,
      "curl": 4844,
      "Ġcharacters": 4845,
      "vc": 4846,
      "Site": 4847,
      "Ġretry": 4848,
      "TEXT": 4849,
      "tl": 4850,
      "cols": 4851,
      "Ġrec": 4852,
      "SuppressWarnings": 4853,
      "google": 4854,
      "201": 4855,
      "Wait": 4856,
      "INFO": 4857,
      "escri": 4858,
      "Ġgot": 4859,
      "strlen": 4860,
      "enable": 4861,
      "Ġlon": 4862,
      "leton": 4863,
      "ene": 4864,
      "asset": 4865,
      "toArray": 4866,
      "fd": 4867,
      "ulation": 4868,
      "oom": 4869,
      "ĉĉĉĊ": 4870,
      "66": 4871,
      "ĠHashMap": 4872,
      "Ġperiod": 4873,
      "rapped": 4874,
      "Ġcontents": 4875,
      "dn": 4876,
      "branch": 4877,
      "translate": 4878,
      "days": 4879,
      "ours": 4880,
      "Ġ\"<": 4881,
      "Init": 4882,
      "DA": 4883,
      "Ġevalu": 4884,
      "country": 4885,
      "Ġleast": 4886,
      "Convert": 4887,
      "Ġcomplete": 4888,
      "Ġprovider": 4889,
      "shop": 4890,
      "ĠOr": 4891,
      "Ġhow": 4892,
      "licit": 4893,
      "ĠCal": 4894,
      "ti": 4895,
      "Abstract": 4896,
      "volume": 4897,
      "Optional": 4898,
      "Ġutils": 4899,
      "ĠToken": 4900,
      "FS": 4901,
      "Edit": 4902,
      "fieldName": 4903,
      "_.": 4904,
      "fileName": 4905,
      "ĠResource": 4906,
      "hasNext": 4907,
      "numeric": 4908,
      "ryption": 4909,
      "Ġdesc": 4910,
      "Find": 4911,
      "ison": 4912,
      "Ġlambda": 4913,
      "poch": 4914,
      "Ġdefinition": 4915,
      "ram": 4916,
      "score": 4917,
      "Ġlanguage": 4918,
      "come": 4919,
      "suffix": 4920,
      "inv": 4921,
      "gon": 4922,
      "indices": 4923,
      "samples": 4924,
      "duration": 4925,
      "currency": 4926,
      "Ġscal": 4927,
      "added": 4928,
      "ole": 4929,
      "Ġplt": 4930,
      "setAttribute": 4931,
      "ANCE": 4932,
      "signature": 4933,
      "Ġway": 4934,
      "gt": 4935,
      "Ġdepth": 4936,
      "cipient": 4937,
      "uplicate": 4938,
      "ĠRun": 4939,
      "ĠDelete": 4940,
      "Ġprot": 4941,
      "Simple": 4942,
      "vs": 4943,
      "cogn": 4944,
      "dataset": 4945,
      "filepath": 4946,
      "ĠElement": 4947,
      "Proto": 4948,
      "ĠBase": 4949,
      "Ġmember": 4950,
      "corator": 4951,
      "Period": 4952,
      "Ġ';": 4953,
      "master": 4954,
      "Ġwere": 4955,
      "spect": 4956,
      "ĠIndex": 4957,
      "scalar": 4958,
      "idual": 4959,
      "requency": 4960,
      "VALID": 4961,
      "Ġpython": 4962,
      "catch": 4963,
      "listener": 4964,
      "series": 4965,
      "github": 4966,
      "MIN": 4967,
      "features": 4968,
      "Ax": 4969,
      "release": 4970,
      "ee": 4971,
      "Import": 4972,
      "Flow": 4973,
      "Ġprops": 4974,
      "missing": 4975,
      "CRE": 4976,
      "Validator": 4977,
      "mi": 4978,
      "ITE": 4979,
      "Math": 4980,
      "Ġ(%": 4981,
      "Signature": 4982,
      "aim": 4983,
      "21": 4984,
      "dimension": 4985,
      "(){": 4986,
      "dump": 4987,
      "Font": 4988,
      "Ġ'.$": 4989,
      "Symbol": 4990,
      "Operator": 4991,
      "Summary": 4992,
      "rain": 4993,
      "Ġclone": 4994,
      "ĠET": 4995,
      "Ind": 4996,
      "Ġneeds": 4997,
      "Ġvector": 4998,
      "ĠDis": 4999,
      "Formatter": 5000,
      "Ġrepo": 5001,
      "Commit": 5002,
      "Insert": 5003,
      "incip": 5004,
      "ampl": 5005,
      "FT": 5006,
      "Bit": 5007,
      "Ġmeans": 5008,
      "strings": 5009,
      "ALSE": 5010,
      "Grid": 5011,
      "updated": 5012,
      "Month": 5013,
      "signed": 5014,
      "Ġkeyword": 5015,
      "spe": 5016,
      "Ġindic": 5017,
      "``,": 5018,
      "Ġbranch": 5019,
      "ĠĠĠĠĠĠĠĠĠĠĠĠĠĠĠĠĠĠĠĠĠĠĠĠĠĠĠĠĠĠĠĠĠĠĠĠ": 5020,
      "UI": 5021,
      "getConfig": 5022,
      "Ġmedi": 5023,
      "super": 5024,
      "Ġexternal": 5025,
      "indent": 5026,
      "Ġter": 5027,
      "ĠĠĠĠĠĠĠĠĠĠĠĠĠĠĠĠĠĠĠĠĠĠĠĠĠĠĠĠĠĠĠĠĠĠ": 5028,
      "ĉĊ": 5029,
      "ĠErr": 5030,
      "ather": 5031,
      "raise": 5032,
      "generator": 5033,
      "29": 5034,
      "Ġgroups": 5035,
      "OS": 5036,
      "Ġ_.": 5037,
      "lim": 5038,
      "Ġstatement": 5039,
      "26": 5040,
      "Usage": 5041,
      "Ġredirect": 5042,
      "Ġcurl": 5043,
      "Throwable": 5044,
      "Single": 5045,
      "uce": 5046,
      "><": 5047,
      "ĠArgument": 5048,
      "lookup": 5049,
      "changed": 5050,
      "/'": 5051,
      "Series": 5052,
      "mut": 5053,
      "activ": 5054,
      "tn": 5055,
      "cores": 5056,
      "Inst": 5057,
      "ĠOutput": 5058,
      "appings": 5059,
      "Over": 5060,
      "NotNull": 5061,
      "Ġsetting": 5062,
      "REQUEST": 5063,
      "xx": 5064,
      "tw": 5065,
      "Ġverify": 5066,
      "->$": 5067,
      "vocation": 5068,
      "reser": 5069,
      "cessary": 5070,
      "Ġinterval": 5071,
      ")\\": 5072,
      "onical": 5073,
      "Ġ'--": 5074,
      "Ġadditional": 5075,
      "iling": 5076,
      "Price": 5077,
      "attach": 5078,
      "ĠWHERE": 5079,
      "Destination": 5080,
      "BE": 5081,
      "Ġequal": 5082,
      "Ġdisable": 5083,
      "NE": 5084,
      "Ġcallable": 5085,
      "Ġmath": 5086,
      "priority": 5087,
      "Ġavoid": 5088,
      "Ġ^": 5089,
      "05": 5090,
      "Ġnote": 5091,
      "related": 5092,
      "raft": 5093,
      "components": 5094,
      "Ġmove": 5095,
      "startsWith": 5096,
      "Returns": 5097,
      "Allowed": 5098,
      "watch": 5099,
      "Protocol": 5100,
      "Where": 5101,
      "Ġoverride": 5102,
      "axon": 5103,
      "entries": 5104,
      "rf": 5105,
      "Ġfill": 5106,
      "Env": 5107,
      "oll": 5108,
      "igits": 5109,
      "Ġdetails": 5110,
      "ssl": 5111,
      "Word": 5112,
      "Ġcp": 5113,
      "Ġtypeof": 5114,
      "ĠURI": 5115,
      "ĠModel": 5116,
      "roles": 5117,
      ")*": 5118,
      "Ġvia": 5119,
      "Ġannotation": 5120,
      "Environment": 5121,
      "codes": 5122,
      "Ġunicode": 5123,
      "Ġbin": 5124,
      "chor": 5125,
      "Common": 5126,
      "Ġstructure": 5127,
      "Ġ1000": 5128,
      "ĠKeyError": 5129,
      "tick": 5130,
      "ele": 5131,
      "Ġalias": 5132,
      "Par": 5133,
      "structure": 5134,
      "router": 5135,
      "iver": 5136,
      "Ġcore": 5137,
      "Ġcondition": 5138,
      "incipal": 5139,
      "Direct": 5140,
      "beta": 5141,
      "cel": 5142,
      "23": 5143,
      "Ġindices": 5144,
      "ĠFunction": 5145,
      "modified": 5146,
      "03": 5147,
      "links": 5148,
      "Ġinstall": 5149,
      "ĠBuild": 5150,
      "stribution": 5151,
      "olders": 5152,
      "parison": 5153,
      "Ġpolicy": 5154,
      "pletion": 5155,
      "aving": 5156,
      "ĠAuth": 5157,
      "ond": 5158,
      "invalidParams": 5159,
      ")\",": 5160,
      "Ġdefin": 5161,
      "Ġ{},": 5162,
      "alan": 5163,
      "ART": 5164,
      "ĠST": 5165,
      "amount": 5166,
      "Ð¸": 5167,
      "STRING": 5168,
      "ociation": 5169,
      "Ġruntime": 5170,
      "Ġmat": 5171,
      "////////": 5172,
      "Ġart": 5173,
      "Ġassume": 5174,
      "ifc": 5175,
      "Abs": 5176,
      "NG": 5177,
      "Now": 5178,
      "Binding": 5179,
      "LL": 5180,
      "hidden": 5181,
      "gregate": 5182,
      "<>(": 5183,
      "Ġtrain": 5184,
      "Ġcontroller": 5185,
      "Ġcached": 5186,
      "Props": 5187,
      "limiter": 5188,
      "Stop": 5189,
      "rpc": 5190,
      "ĠNO": 5191,
      "ĠDouble": 5192,
      "ĠOther": 5193,
      "Ġseries": 5194,
      "emon": 5195,
      "Ġhapp": 5196,
      "()[": 5197,
      ":`~": 5198,
      "Ġupload": 5199,
      "services": 5200,
      "fully": 5201,
      "Ġcalculate": 5202,
      "Bag": 5203,
      "records": 5204,
      "ks": 5205,
      "Upload": 5206,
      "Ġmetric": 5207,
      "href": 5208,
      "AA": 5209,
      "itespace": 5210,
      "Constraints": 5211,
      "ficient": 5212,
      "identity": 5213,
      "CF": 5214,
      "selector": 5215,
      "sym": 5216,
      "Changed": 5217,
      "Ġlookup": 5218,
      "Ġalpha": 5219,
      "Bar": 5220,
      "distance": 5221,
      "platform": 5222,
      "Validate": 5223,
      "Ġverbose": 5224,
      ":\\": 5225,
      "Ġpd": 5226,
      "exclude": 5227,
      "OB": 5228,
      "train": 5229,
      "Ġtoo": 5230,
      "Ġdist": 5231,
      "Di": 5232,
      "Ġids": 5233,
      "Ġ{\"": 5234,
      "Assign": 5235,
      "Temp": 5236,
      "Rec": 5237,
      "legate": 5238,
      "ao": 5239,
      "Ġsetup": 5240,
      "sd": 5241,
      "Ġyet": 5242,
      "aunch": 5243,
      "ĠFind": 5244,
      "Ġ):": 5245,
      "}\\": 5246,
      "Ġpush": 5247,
      "Ġtimes": 5248,
      "Ġbox": 5249,
      "Det": 5250,
      "RuntimeException": 5251,
      "/**": 5252,
      "Ġtrack": 5253,
      "Replace": 5254,
      "persist": 5255,
      "Ġ'</": 5256,
      "pires": 5257,
      "csv": 5258,
      "CESS": 5259,
      "åĲ": 5260,
      "ĠTable": 5261,
      "commands": 5262,
      "Ġclasses": 5263,
      "ÑĤ": 5264,
      "Processor": 5265,
      "Converter": 5266,
      "Qual": 5267,
      "ony": 5268,
      "Ġ\"_": 5269,
      "Calendar": 5270,
      "Ġcalcul": 5271,
      "adapter": 5272,
      "FIG": 5273,
      "Ġutil": 5274,
      "normalize": 5275,
      "strpos": 5276,
      "Look": 5277,
      "LOB": 5278,
      "integer": 5279,
      "Vertex": 5280,
      "Ġduration": 5281,
      "Memory": 5282,
      "Millis": 5283,
      "WOR": 5284,
      "ATTR": 5285,
      "fit": 5286,
      "44": 5287,
      "Prop": 5288,
      "ĠSub": 5289,
      "HEAD": 5290,
      "variant": 5291,
      "losing": 5292,
      "reen": 5293,
      "mutable": 5294,
      "Ġbundle": 5295,
      "runtime": 5296,
      "ĠInt": 5297,
      "ker": 5298,
      "validation": 5299,
      "Ġfilepath": 5300,
      "none": 5301,
      "cision": 5302,
      "zeros": 5303,
      "__['": 5304,
      "}\".": 5305,
      "security": 5306,
      "Equal": 5307,
      "Ġinitialize": 5308,
      "xf": 5309,
      "Dimension": 5310,
      "ĠOnly": 5311,
      "cop": 5312,
      "StateException": 5313,
      ")+": 5314,
      "Ġcap": 5315,
      "Ġfuture": 5316,
      "URLOPT": 5317,
      "uted": 5318,
      "Ġround": 5319,
      "Ġdraw": 5320,
      "Warning": 5321,
      "ĠPython": 5322,
      "CL": 5323,
      "yped": 5324,
      "Man": 5325,
      "NonNull": 5326,
      "Watch": 5327,
      "aries": 5328,
      "existing": 5329,
      "dum": 5330,
      "Ġseq": 5331,
      "prob": 5332,
      "ilities": 5333,
      "Ġgenerated": 5334,
      "allel": 5335,
      "ifications": 5336,
      "apture": 5337,
      "AUT": 5338,
      "ĠLink": 5339,
      "Ġattrs": 5340,
      "Decimal": 5341,
      "Ġdownload": 5342,
      "peri": 5343,
      "boot": 5344,
      "Ġ??": 5345,
      "Ġwrapper": 5346,
      "Loop": 5347,
      "bits": 5348,
      "Ġsuffix": 5349,
      "Ġcause": 5350,
      "havior": 5351,
      "Cert": 5352,
      "Ġfactory": 5353,
      "Ġmag": 5354,
      "IDs": 5355,
      "tty": 5356,
      ">\\": 5357,
      "direction": 5358,
      "orary": 5359,
      "ĠĠĠĠĠĠĊ": 5360,
      "Ġiterator": 5361,
      "cum": 5362,
      "Arr": 5363,
      "urface": 5364,
      "rb": 5365,
      "Ġoperator": 5366,
      "RECTORY": 5367,
      "Ġrules": 5368,
      "Login": 5369,
      "MD": 5370,
      "Decode": 5371,
      "aws": 5372,
      "ById": 5373,
      "ĠHE": 5374,
      "DEBUG": 5375,
      "pages": 5376,
      "Ġsamples": 5377,
      "JECT": 5378,
      "Fra": 5379,
      "bove": 5380,
      "Ġ201": 5381,
      "comm": 5382,
      "Ġstandard": 5383,
      "NLS": 5384,
      "oauth": 5385,
      "progress": 5386,
      "ĠWhen": 5387,
      "Ġprogress": 5388,
      "MODE": 5389,
      "Lib": 5390,
      "Virtual": 5391,
      "ĠBuffer": 5392,
      "free": 5393,
      "Annotations": 5394,
      "ä»": 5395,
      "Ġyear": 5396,
      "elem": 5397,
      "signal": 5398,
      "environment": 5399,
      "semb": 5400,
      "Ġ20": 5401,
      "ditions": 5402,
      "answer": 5403,
      "rece": 5404,
      "feed": 5405,
      "perand": 5406,
      "Ġdeleted": 5407,
      "]->": 5408,
      "Ġrecords": 5409,
      "ĠClient": 5410,
      "Ġfunctions": 5411,
      "Ip": 5412,
      "Scale": 5413,
      "Ġ32": 5414,
      "ĠRaises": 5415,
      "TL": 5416,
      "Persist": 5417,
      "ĠGener": 5418,
      "Ġstored": 5419,
      "getUser": 5420,
      "Consumer": 5421,
      "Ġfix": 5422,
      "udit": 5423,
      "Ġexpr": 5424,
      "oriz": 5425,
      "Metrics": 5426,
      "Bad": 5427,
      "Binary": 5428,
      "undefined": 5429,
      "ĠAb": 5430,
      "Ġ){": 5431,
      "('-": 5432,
      ")-": 5433,
      "Ġenabled": 5434,
      "SK": 5435,
      "Ġconversion": 5436,
      "]):": 5437,
      "docs": 5438,
      "Ġreason": 5439,
      "88": 5440,
      "pix": 5441,
      "Available": 5442,
      "Ġfont": 5443,
      "Ġassociated": 5444,
      "posite": 5445,
      "Entries": 5446,
      "Nullable": 5447,
      "></": 5448,
      "endor": 5449,
      "tableName": 5450,
      "Bounds": 5451,
      "Ġbits": 5452,
      "high": 5453,
      "Ġanother": 5454,
      "Ġfeatures": 5455,
      "pad": 5456,
      "Ġsubject": 5457,
      "Ġ\");": 5458,
      "chars": 5459,
      "cut": 5460,
      "Sl": 5461,
      "Hook": 5462,
      "see": 5463,
      "Ġmost": 5464,
      "('.": 5465,
      "stderr": 5466,
      "Fn": 5467,
      "ĠCommand": 5468,
      "imation": 5469,
      "Ġfit": 5470,
      "filePath": 5471,
      "DELETE": 5472,
      "Dispatch": 5473,
      "Own": 5474,
      "xb": 5475,
      "Java": 5476,
      "Subject": 5477,
      "ĠCall": 5478,
      "ĠWrite": 5479,
      "StatusCode": 5480,
      "Ġns": 5481,
      "****************": 5482,
      "azy": 5483,
      "Ġsync": 5484,
      "Ġsimple": 5485,
      "Ġcorresponding": 5486,
      "ents": 5487,
      "ndarray": 5488,
      "Labels": 5489,
      "Pr": 5490,
      "rong": 5491,
      "avig": 5492,
      "ga": 5493,
      "ĠFilter": 5494,
      "Ġhead": 5495,
      "ively": 5496,
      "Ġexpect": 5497,
      "Ġinstances": 5498,
      "37": 5499,
      "rant": 5500,
      "Area": 5501,
      "payment": 5502,
      "Connect": 5503,
      "na": 5504,
      "Ġstrpos": 5505,
      "Ġattach": 5506,
      "Failure": 5507,
      "Second": 5508,
      "Ġca": 5509,
      "Created": 5510,
      "ention": 5511,
      ")){": 5512,
      "Ġcancel": 5513,
      "Inv": 5514,
      "Save": 5515,
      "fast": 5516,
      "tools": 5517,
      "Ident": 5518,
      "setup": 5519,
      "Primary": 5520,
      "pkg": 5521,
      "Ġrout": 5522,
      "pared": 5523,
      "ough": 5524,
      "Ġgenerator": 5525,
      "ĠDI": 5526,
      "Ġtem": 5527,
      "compute": 5528,
      "Ġpixel": 5529,
      "ĉĠĠĠĠĠĠĠĠĠĠĠ": 5530,
      "Chunk": 5531,
      "Ġmonth": 5532,
      "sha": 5533,
      "mm": 5534,
      "images": 5535,
      "ĠĠĠĠĠĠĠĠĠĠĠĠĠĠĠĠĠĠĠĠĠĠĠĠĠĠĠĠĠĠĠĠĠĠĠĠĠĠ": 5536,
      "ĠĠĠĠĠĠĠĠĠĠĠĠĠĠĠĠĠĠĠĠĠĠĠĠĠĠĠĠĠĠĠĠĠĠĠĠĠ": 5537,
      "Ġdim": 5538,
      "mime": 5539,
      "Progress": 5540,
      "Owner": 5541,
      "Ġclazz": 5542,
      "console": 5543,
      "antity": 5544,
      "MI": 5545,
      "asc": 5546,
      "verify": 5547,
      "kw": 5548,
      "cf": 5549,
      "ĠStr": 5550,
      "olt": 5551,
      "TableName": 5552,
      "etrie": 5553,
      "dicate": 5554,
      "origin": 5555,
      "zero": 5556,
      "registry": 5557,
      "uff": 5558,
      "norm": 5559,
      "Ġaddr": 5560,
      "STATUS": 5561,
      "ters": 5562,
      "Ġdetermine": 5563,
      "Ġstill": 5564,
      "ĠImage": 5565,
      "otes": 5566,
      "Ġmight": 5567,
      "units": 5568,
      "UND": 5569,
      "-+-+": 5570,
      "curr": 5571,
      "mitive": 5572,
      "'ll": 5573,
      "Gateway": 5574,
      "factor": 5575,
      "atible": 5576,
      "members": 5577,
      "Ġpartition": 5578,
      "getParent": 5579,
      "Ġ'.'": 5580,
      "Accept": 5581,
      "Slice": 5582,
      "Ġdid": 5583,
      "Org": 5584,
      ")|": 5585,
      "Ġdirection": 5586,
      "Ġalt": 5587,
      "cos": 5588,
      "mitted": 5589,
      "IgnoreCase": 5590,
      "Ġknow": 5591,
      "clared": 5592,
      "Ġslice": 5593,
      "Ġattempt": 5594,
      "refresh": 5595,
      "summary": 5596,
      "Ġproduct": 5597,
      "Ġimg": 5598,
      "topic": 5599,
      "Ġloaded": 5600,
      "Vars": 5601,
      "Ġ?:": 5602,
      "panic": 5603,
      "Ġnothing": 5604,
      "Ġnormalize": 5605,
      "(`": 5606,
      "sess": 5607,
      "Ġproto": 5608,
      "anit": 5609,
      "Normal": 5610,
      "Setting": 5611,
      "changes": 5612,
      "plugins": 5613,
      "86": 5614,
      "Ġå": 5615,
      "ãĤ": 5616,
      "verbose": 5617,
      "Ġcounter": 5618,
      "Ġlocale": 5619,
      "eds": 5620,
      "ĠĠĠĠĠĠĠĠĠĠĠĠĠĠĠĠĠĠĠĠĠĠĠĠĠĠĠĠĠĠĠĠĠĠĠĠĠĠĠĠĠĠĠĠĠĠĠ": 5621,
      "Ġrelease": 5622,
      "Ġprepare": 5623,
      "Ġprovide": 5624,
      "lon": 5625,
      "ĠProtocol": 5626,
      "Locator": 5627,
      "Ġcenter": 5628,
      "Ġelem": 5629,
      "Cookie": 5630,
      "visit": 5631,
      "utomatic": 5632,
      "Opts": 5633,
      "ula": 5634,
      "Fore": 5635,
      "ales": 5636,
      "Rect": 5637,
      "Services": 5638,
      "Points": 5639,
      "FIELD": 5640,
      "Literal": 5641,
      "memory": 5642,
      "getDefault": 5643,
      "Ġfilters": 5644,
      "Panel": 5645,
      "download": 5646,
      "=\\\"": 5647,
      "reverse": 5648,
      "\\.": 5649,
      "ongo": 5650,
      "ĠState": 5651,
      "ierarch": 5652,
      "eno": 5653,
      "ĠInvalidArgumentException": 5654,
      "lict": 5655,
      "SL": 5656,
      "separator": 5657,
      "Done": 5658,
      "home": 5659,
      "Std": 5660,
      ">,": 5661,
      "Ġretrieve": 5662,
      "getString": 5663,
      "brocade": 5664,
      "Diff": 5665,
      "tegr": 5666,
      "Ġabove": 5667,
      "EOL": 5668,
      "Place": 5669,
      "Year": 5670,
      "gers": 5671,
      "Ġscore": 5672,
      "basename": 5673,
      "Ġstrtolower": 5674,
      "worker": 5675,
      "Contents": 5676,
      "ĠStart": 5677,
      "*(": 5678,
      "Ġtake": 5679,
      "Big": 5680,
      "etermin": 5681,
      "logging": 5682,
      "kernel": 5683,
      "Ġorigin": 5684,
      "\\\"\\\\": 5685,
      "Ġinputs": 5686,
      "ĠChar": 5687,
      "Ġonce": 5688,
      "LowerCase": 5689,
      "Activity": 5690,
      "Fetch": 5691,
      "userid": 5692,
      "Ġencoded": 5693,
      "hy": 5694,
      "iate": 5695,
      "Ġamount": 5696,
      "diction": 5697,
      "Ġcomput": 5698,
      "kdir": 5699,
      "Private": 5700,
      "(:": 5701,
      "Ġsix": 5702,
      "DD": 5703,
      "31": 5704,
      "isArray": 5705,
      "backend": 5706,
      "Ġcategory": 5707,
      "Ġduring": 5708,
      "FIN": 5709,
      "Ġpkg": 5710,
      "+\"": 5711,
      "Ġmer": 5712,
      "ĠĠĠĠĠĠĠĠčĊ": 5713,
      "Icon": 5714,
      "Ġpr": 5715,
      ">)": 5716,
      "CONFIG": 5717,
      "Ġscan": 5718,
      "è¯": 5719,
      "æĸ": 5720,
      "Mask": 5721,
      "rase": 5722,
      "Payload": 5723,
      "ĠPh": 5724,
      "FilePath": 5725,
      "!=": 5726,
      "appendChild": 5727,
      "Ġcollect": 5728,
      "Real": 5729,
      "Information": 5730,
      "embed": 5731,
      "iation": 5732,
      "setting": 5733,
      "race": 5734,
      "Apply": 5735,
      "ferences": 5736,
      "ysql": 5737,
      "Arch": 5738,
      "iform": 5739,
      "Ġregistered": 5740,
      "Selection": 5741,
      "Ġrepository": 5742,
      "ables": 5743,
      "Ġ|=": 5744,
      "ãĥ": 5745,
      "translation": 5746,
      "getField": 5747,
      "Ġprimary": 5748,
      "ridge": 5749,
      "dc": 5750,
      "Rep": 5751,
      "routes": 5752,
      "Bool": 5753,
      "Ġcompare": 5754,
      "-%": 5755,
      "yy": 5756,
      "yml": 5757,
      "XX": 5758,
      "cms": 5759,
      "Ġmanager": 5760,
      "Ġconstraint": 5761,
      "collect": 5762,
      "IVE": 5763,
      "INST": 5764,
      "xe": 5765,
      "blocks": 5766,
      "Ð½": 5767,
      "NUM": 5768,
      "RED": 5769,
      "Ġupper": 5770,
      "Comparator": 5771,
      "ALS": 5772,
      "APP": 5773,
      "Runtime": 5774,
      "Ġmany": 5775,
      "ensity": 5776,
      "Ġts": 5777,
      "Buf": 5778,
      "History": 5779,
      "[^": 5780,
      "roid": 5781,
      ">()": 5782,
      "border": 5783,
      "rot": 5784,
      "align": 5785,
      "Ġmodels": 5786,
      "Ġ))": 5787,
      "Ġ{}\".": 5788,
      "ĠContent": 5789,
      "Filters": 5790,
      "nan": 5791,
      "Transport": 5792,
      "Ġconsider": 5793,
      "history": 5794,
      "echo": 5795,
      "DC": 5796,
      "sep": 5797,
      "ĠAd": 5798,
      "duce": 5799,
      "Ġaws": 5800,
      "Ġbean": 5801,
      ".'/": 5802,
      "Ġexclude": 5803,
      "lint": 5804,
      "45": 5805,
      "Edge": 5806,
      "argv": 5807,
      "æķ": 5808,
      "retry": 5809,
      "Ġ\"{": 5810,
      "ĠSo": 5811,
      "ĠWeb": 5812,
      "Ġvm": 5813,
      "Ġspecial": 5814,
      "sired": 5815,
      "Ġflat": 5816,
      "Authorization": 5817,
      "Ġbutton": 5818,
      "ĠLoad": 5819,
      "iration": 5820,
      "Ġhex": 5821,
      "Ġzone": 5822,
      "isto": 5823,
      "Ġusers": 5824,
      "ĠIllegalStateException": 5825,
      "Reflection": 5826,
      "fire": 5827,
      "states": 5828,
      "Ġstrip": 5829,
      "Listeners": 5830,
      ",'": 5831,
      "invoke": 5832,
      "Ġast": 5833,
      "ulk": 5834,
      "cAddr": 5835,
      "Ġsnapshot": 5836,
      "Ġimages": 5837,
      "48": 5838,
      "Ġnd": 5839,
      "Track": 5840,
      "Ġregex": 5841,
      "catalog": 5842,
      "Ġoccur": 5843,
      "Ġdt": 5844,
      "Payment": 5845,
      "WN": 5846,
      "Ġdefine": 5847,
      "sect": 5848,
      "\"},": 5849,
      "ĠText": 5850,
      "sorted": 5851,
      "void": 5852,
      "'}": 5853,
      "Cmd": 5854,
      "('<": 5855,
      "getProcAddr": 5856,
      "ACT": 5857,
      "Suffix": 5858,
      "ĠServer": 5859,
      "week": 5860,
      "olygon": 5861,
      "anguages": 5862,
      "sens": 5863,
      "alf": 5864,
      "Ġkind": 5865,
      "ĠOR": 5866,
      "Support": 5867,
      "ars": 5868,
      "ULE": 5869,
      "Elem": 5870,
      "LINE": 5871,
      "ToString": 5872,
      "ĠRuntime": 5873,
      "ĠProcess": 5874,
      "ideo": 5875,
      "æľ": 5876,
      "STATE": 5877,
      "axonom": 5878,
      "eval": 5879,
      "Ġclick": 5880,
      "unchecked": 5881,
      "Ġnecessary": 5882,
      "Lines": 5883,
      "Ġdirectly": 5884,
      "Ġalgorithm": 5885,
      "LIC": 5886,
      "ĠIs": 5887,
      "ĠOtherwise": 5888,
      "abilities": 5889,
      "stit": 5890,
      "ĠHT": 5891,
      "Ġexport": 5892,
      "getCurrent": 5893,
      "python": 5894,
      "Ġdisk": 5895,
      "TAG": 5896,
      "addAll": 5897,
      "metrics": 5898,
      "ĠResult": 5899,
      "SubElement": 5900,
      "BY": 5901,
      "################": 5902,
      "relative": 5903,
      "ctr": 5904,
      "(\",": 5905,
      "ango": 5906,
      "SESSION": 5907,
      "Character": 5908,
      "Ġbelow": 5909,
      "sid": 5910,
      "Plan": 5911,
      "ampa": 5912,
      "Ġ60": 5913,
      "cryption": 5914,
      "Go": 5915,
      "Ġlater": 5916,
      "expand": 5917,
      "copes": 5918,
      "INTER": 5919,
      "getResource": 5920,
      "Authentication": 5921,
      "ampaign": 5922,
      "OPTION": 5923,
      "Ġnamed": 5924,
      "contentType": 5925,
      "loor": 5926,
      "ĠTR": 5927,
      "stri": 5928,
      "Ġvert": 5929,
      "cancel": 5930,
      "Ġinner": 5931,
      "contact": 5932,
      "('_": 5933,
      "Static": 5934,
      "pub": 5935,
      "../": 5936,
      "Tab": 5937,
      "Req": 5938,
      "Sp": 5939,
      "Scal": 5940,
      "Ġbro": 5941,
      "dl": 5942,
      "ĠNOT": 5943,
      "sqrt": 5944,
      "Ġlayout": 5945,
      "pending": 5946,
      "ĠFI": 5947,
      "ĠAll": 5948,
      "tables": 5949,
      "Ġrot": 5950,
      "ĠCan": 5951,
      "iance": 5952,
      "extensions": 5953,
      "plied": 5954,
      "ÑĢ": 5955,
      "disable": 5956,
      "Ġ'{}": 5957,
      "Ġreverse": 5958,
      "Ġlogin": 5959,
      "Amount": 5960,
      "isValid": 5961,
      "bad": 5962,
      "Ġfactor": 5963,
      "(':": 5964,
      "alancer": 5965,
      "Dat": 5966,
      "VAR": 5967,
      "lan": 5968,
      "unset": 5969,
      "Ġtile": 5970,
      "exceptions": 5971,
      "override": 5972,
      "reply": 5973,
      "Skip": 5974,
      "CONT": 5975,
      "Such": 5976,
      "ĠStream": 5977,
      "ĉĉĠĠĠ": 5978,
      "meth": 5979,
      "scan": 5980,
      "andas": 5981,
      "encoded": 5982,
      "Ġcalling": 5983,
      "alance": 5984,
      "IST": 5985,
      "Ġlow": 5986,
      "Ġvariant": 5987,
      "toLowerCase": 5988,
      "ately": 5989,
      "--;": 5990,
      "Axis": 5991,
      "Ġunits": 5992,
      "URCE": 5993,
      "GB": 5994,
      "png": 5995,
      "Fac": 5996,
      "ĠIO": 5997,
      "Marshal": 5998,
      "Schedule": 5999,
      "Ġder": 6000,
      "Deployment": 6001,
      "ats": 6002,
      "Opt": 6003,
      "istic": 6004,
      "enum": 6005,
      "iases": 6006,
      "click": 6007,
      "Ġcomponents": 6008,
      "SU": 6009,
      "wp": 6010,
      "equalsIgnoreCase": 6011,
      "plan": 6012,
      "Asset": 6013,
      "containsKey": 6014,
      "poser": 6015,
      "velope": 6016,
      "reason": 6017,
      "Ġcurrently": 6018,
      "Exit": 6019,
      "}\",": 6020,
      "Ġ24": 6021,
      "::$_": 6022,
      "Ġexecution": 6023,
      "Ġprotected": 6024,
      "Ġreceived": 6025,
      "views": 6026,
      "orig": 6027,
      "ĠIterator": 6028,
      "\\\"]": 6029,
      "Publish": 6030,
      "Ġtab": 6031,
      "Ġpublish": 6032,
      "note": 6033,
      "255": 6034,
      "Ġ{})": 6035,
      "Ġsepar": 6036,
      "getParameter": 6037,
      "Cor": 6038,
      "resolver": 6039,
      "FOL": 6040,
      "Ġgre": 6041,
      "Ġtopic": 6042,
      "Ġweights": 6043,
      "Credentials": 6044,
      "vance": 6045,
      "Ġpacket": 6046,
      "Ġstdout": 6047,
      "GLOB": 6048,
      "Ġremaining": 6049,
      "Redirect": 6050,
      "delay": 6051,
      "ĉĠ": 6052,
      "ini": 6053,
      "Ġselection": 6054,
      "lab": 6055,
      "Ġ\";": 6056,
      "Ġeven": 6057,
      "Dialog": 6058,
      "met": 6059,
      "viders": 6060,
      "hip": 6061,
      "EV": 6062,
      "zz": 6063,
      "price": 6064,
      "Writ": 6065,
      "pdf": 6066,
      "aging": 6067,
      "templates": 6068,
      "Ġcoordinates": 6069,
      "Peer": 6070,
      "78": 6071,
      "bb": 6072,
      "COMP": 6073,
      "ĠAS": 6074,
      "oted": 6075,
      "Ġwrap": 6076,
      "ĠPage": 6077,
      "binding": 6078,
      "ServiceResponseAsync": 6079,
      "del": 6080,
      "DataType": 6081,
      "Serializer": 6082,
      "ilar": 6083,
      "inputs": 6084,
      "PACE": 6085,
      "Show": 6086,
      "(%": 6087,
      "Ġconstructor": 6088,
      "Structure": 6089,
      "getOption": 6090,
      "notification": 6091,
      "ĠĠĠĠĠĠĠĠĠĠĠĠĠĠĠĠĠĠĠĠĠĠĠĠĠĠĠĠĠĠĠĠĠĠĠĠĠĠĠĠ": 6092,
      "59": 6093,
      "READ": 6094,
      "Ġrequires": 6095,
      "escap": 6096,
      "EC": 6097,
      "Ġmaster": 6098,
      "Ġignored": 6099,
      "Ġhref": 6100,
      "[(": 6101,
      "formatter": 6102,
      "Instances": 6103,
      "charset": 6104,
      "Ġflow": 6105,
      "Ġthreshold": 6106,
      "PREFIX": 6107,
      "Topic": 6108,
      "ildcard": 6109,
      "AG": 6110,
      "ĠFALSE": 6111,
      "Ġclosed": 6112,
      "Upper": 6113,
      "editor": 6114,
      "ĠSpec": 6115,
      "ĠCo": 6116,
      "SD": 6117,
      "partition": 6118,
      "Ġemit": 6119,
      "win": 6120,
      ">',": 6121,
      "aN": 6122,
      "Ġds": 6123,
      "correct": 6124,
      "crypted": 6125,
      "'''": 6126,
      "Sk": 6127,
      "SSL": 6128,
      "Background": 6129,
      "Ġ{}\",": 6130,
      "Ġestim": 6131,
      "Ġarrays": 6132,
      "cesses": 6133,
      "Lookup": 6134,
      "Ter": 6135,
      "(\"[": 6136,
      "numpy": 6137,
      "WE": 6138,
      "sim": 6139,
      "Ġengine": 6140,
      "Ġregistry": 6141,
      "unknown": 6142,
      "MB": 6143,
      "example": 6144,
      "Ġfailure": 6145,
      "bottom": 6146,
      "wt": 6147,
      ">>>": 6148,
      "ĠDEFAULT": 6149,
      "running": 6150,
      "reflection": 6151,
      "Ġside": 6152,
      "ONE": 6153,
      "Ġtre": 6154,
      "background": 6155,
      "padding": 6156,
      "wrapper": 6157,
      "FORMAT": 6158,
      "Ġstarting": 6159,
      "Ġ##": 6160,
      "DT": 6161,
      "cn": 6162,
      "('#": 6163,
      "Card": 6164,
      "Ġwatch": 6165,
      "===": 6166,
      "ByName": 6167,
      "JS": 6168,
      "writel": 6169,
      "Ġprocessing": 6170,
      "ĠApi": 6171,
      "ĠHandle": 6172,
      "pars": 6173,
      "compiler": 6174,
      "Printf": 6175,
      "tempts": 6176,
      "ĠRes": 6177,
      "ĠProperty": 6178,
      "raises": 6179,
      "Matcher": 6180,
      "âĢ": 6181,
      "rm": 6182,
      "08": 6183,
      "Uuid": 6184,
      "Ġthose": 6185,
      "pointer": 6186,
      "Ġagent": 6187,
      "SY": 6188,
      "Ġwords": 6189,
      "ĠCode": 6190,
      "ĠHTML": 6191,
      "schedule": 6192,
      "Ġdec": 6193,
      "anagement": 6194,
      "['_": 6195,
      "ĠAbstract": 6196,
      "ĠBe": 6197,
      "tod": 6198,
      "uses": 6199,
      "Visible": 6200,
      "actual": 6201,
      "digest": 6202,
      "Ġ${": 6203,
      "Ġrs": 6204,
      "Ġ\\\"": 6205,
      "ĉĉĉĉĉĉĉĉĉĉ": 6206,
      "define": 6207,
      "Infof": 6208,
      "Ñģ": 6209,
      "Cursor": 6210,
      "Ġowner": 6211,
      "attrib": 6212,
      "WithServiceResponseAsync": 6213,
      "periment": 6214,
      "WARN": 6215,
      "49": 6216,
      "errupted": 6217,
      "Absolute": 6218,
      "Ret": 6219,
      ">\"": 6220,
      "509": 6221,
      "Ġbackend": 6222,
      "Ġinside": 6223,
      "disabled": 6224,
      "UST": 6225,
      "sTo": 6226,
      "ĠThread": 6227,
      "unicode": 6228,
      "createElement": 6229,
      "<<": 6230,
      "ĠeZ": 6231,
      "Ġhook": 6232,
      "Ġselector": 6233,
      "Declaration": 6234,
      "setValue": 6235,
      "Transfer": 6236,
      "UTE": 6237,
      "Factor": 6238,
      "ARY": 6239,
      "Ġwidget": 6240,
      "visible": 6241,
      "au": 6242,
      "Ġpod": 6243,
      "permissions": 6244,
      "Ġiterable": 6245,
      "Ġpadding": 6246,
      "licies": 6247,
      "bine": 6248,
      "Ġreply": 6249,
      "Ġdriver": 6250,
      "Holder": 6251,
      "aa": 6252,
      "scriber": 6253,
      "(...)": 6254,
      "tle": 6255,
      "ipher": 6256,
      "Ġminimum": 6257,
      "Depth": 6258,
      "Ctx": 6259,
      "GR": 6260,
      "Ġ255": 6261,
      "Ġ\":": 6262,
      "Ġ15": 6263,
      "foreign": 6264,
      "getB": 6265,
      "MetaData": 6266,
      "Ġ'&": 6267,
      "[])": 6268,
      "Jvm": 6269,
      "Variables": 6270,
      "Implement": 6271,
      "uess": 6272,
      "RES": 6273,
      "ĠEnt": 6274,
      "bot": 6275,
      "CI": 6276,
      "percent": 6277,
      "proc": 6278,
      "Ġmodified": 6279,
      "Ġchr": 6280,
      "Ġcredentials": 6281,
      "Ġoptim": 6282,
      "steps": 6283,
      "MT": 6284,
      "_{": 6285,
      "slot": 6286,
      "Unique": 6287,
      "Ġwell": 6288,
      "customer": 6289,
      "ĠSE": 6290,
      "tasks": 6291,
      "should": 6292,
      "è¿": 6293,
      "Ġ\"\")": 6294,
      "LY": 6295,
      "selection": 6296,
      "orizont": 6297,
      "Detail": 6298,
      "Machine": 6299,
      "posed": 6300,
      "}`": 6301,
      "ĠčĊ": 6302,
      "Ð¾Ð": 6303,
      "NULL": 6304,
      "Ġstrconv": 6305,
      "ĠSimple": 6306,
      "Arn": 6307,
      "Ġdiv": 6308,
      "Ġhappen": 6309,
      "fname": 6310,
      "Ġcurr": 6311,
      "Executor": 6312,
      "Ġpeer": 6313,
      "encrypt": 6314,
      "hostname": 6315,
      "SSAGE": 6316,
      "partial": 6317,
      "Ġedit": 6318,
      "->{$": 6319,
      ")?": 6320,
      "Ġcalls": 6321,
      "cording": 6322,
      "WR": 6323,
      "YY": 6324,
      "channels": 6325,
      "ĠAny": 6326,
      "ĠHEAP": 6327,
      "StackTrace": 6328,
      "Ġes": 6329,
      "Ġmetrics": 6330,
      "ĠOrder": 6331,
      "æķ°": 6332,
      "Ġuses": 6333,
      "Po": 6334,
      "uggest": 6335,
      "Weight": 6336,
      "Chan": 6337,
      "Actions": 6338,
      "Ġbounds": 6339,
      ")',": 6340,
      "blob": 6341,
      "matcher": 6342,
      "Subscription": 6343,
      "xc": 6344,
      "clusive": 6345,
      "Net": 6346,
      "simple": 6347,
      "quare": 6348,
      "Ġsafe": 6349,
      "nn": 6350,
      "etter": 6351,
      "Ġless": 6352,
      "orld": 6353,
      "Ġblocks": 6354,
      "FC": 6355,
      "usters": 6356,
      "__(": 6357,
      "Strings": 6358,
      "times": 6359,
      "ĠĠĊ": 6360,
      "alloc": 6361,
      "Ġown": 6362,
      "AUTH": 6363,
      "=$": 6364,
      "ants": 6365,
      "edges": 6366,
      "sleep": 6367,
      "Ġpick": 6368,
      "ĠContext": 6369,
      "Ġrate": 6370,
      "OKEN": 6371,
      "transport": 6372,
      "Partition": 6373,
      "Permissions": 6374,
      "Ġknown": 6375,
      "istogram": 6376,
      "coords": 6377,
      "ContentType": 6378,
      "ĠPromise": 6379,
      "Worker": 6380,
      "ĠConnection": 6381,
      "peer": 6382,
      "ĠCURLOPT": 6383,
      "jo": 6384,
      "att": 6385,
      "External": 6386,
      "Constant": 6387,
      "herit": 6388,
      "writeln": 6389,
      "si": 6390,
      "ArrayList": 6391,
      "POS": 6392,
      "tile": 6393,
      "allet": 6394,
      "keep": 6395,
      "Ġsecret": 6396,
      "aff": 6397,
      "ĠLA": 6398,
      "'\\": 6399,
      "Ġtool": 6400,
      "plain": 6401,
      "Ġisn": 6402,
      "adcast": 6403,
      "external": 6404,
      "Separator": 6405,
      "layers": 6406,
      "Timer": 6407,
      "ock": 6408,
      "TS": 6409,
      "Ġcommands": 6410,
      "Ġboot": 6411,
      "best": 6412,
      "threshold": 6413,
      "axonomy": 6414,
      "Complete": 6415,
      "submit": 6416,
      "Exist": 6417,
      "Mock": 6418,
      "[:-": 6419,
      "reduce": 6420,
      "Help": 6421,
      "resolved": 6422,
      "Ġplatform": 6423,
      "']]": 6424,
      "Seconds": 6425,
      ":'": 6426,
      "Ġedges": 6427,
      "Ġnested": 6428,
      "adow": 6429,
      "Ġproper": 6430,
      "redicate": 6431,
      "instances": 6432,
      "Ġetc": 6433,
      "ĠĠĠĠĠĠĠĠĠĠĠĠĠĠĠĠĠĠĠĠĠĠĠĠĠĠĠĠĠĠĠĠĠĠĠĠĠĠĠĠĠ": 6434,
      "Ġsym": 6435,
      "Ġworker": 6436,
      "Ġdot": 6437,
      "escription": 6438,
      "AV": 6439,
      "ĠCache": 6440,
      "nail": 6441,
      "defaultValue": 6442,
      "-----": 6443,
      "nest": 6444,
      "Ġdistribution": 6445,
      "Generic": 6446,
      "Ġmb": 6447,
      "keyword": 6448,
      "DOM": 6449,
      "udo": 6450,
      "ĠVar": 6451,
      "Packet": 6452,
      "pm": 6453,
      "Ġtasks": 6454,
      "[\\": 6455,
      "gu": 6456,
      "}{": 6457,
      "Ġpointer": 6458,
      "lif": 6459,
      "ĠExamples": 6460,
      "ectors": 6461,
      "Disk": 6462,
      "Rad": 6463,
      "uer": 6464,
      "environ": 6465,
      "Unexpected": 6466,
      "chart": 6467,
      "Ġnumbers": 6468,
      "Ġissue": 6469,
      "Ġconfigured": 6470,
      "car": 6471,
      "Many": 6472,
      "Ġuuid": 6473,
      "getTime": 6474,
      "illing": 6475,
      "orizontal": 6476,
      "76": 6477,
      "Ġpairs": 6478,
      "Ġdelay": 6479,
      "notify": 6480,
      "Encoder": 6481,
      "ultipart": 6482,
      "processor": 6483,
      "Span": 6484,
      "Roles": 6485,
      "tpl": 6486,
      "racket": 6487,
      "Ġsaved": 6488,
      "BR": 6489,
      "atype": 6490,
      "ĠĠĠĠĠĠĠĠĠĠĠĠĠĠĠĠĊ": 6491,
      "Draw": 6492,
      "pg": 6493,
      "DR": 6494,
      "Expected": 6495,
      "Regex": 6496,
      "Ġexplicit": 6497,
      "Promise": 6498,
      "Ġexact": 6499,
      "Ġrepresentation": 6500,
      "destroy": 6501,
      "pology": 6502,
      "Head": 6503,
      "ĠView": 6504,
      "Ġ64": 6505,
      "handlers": 6506,
      "Ob": 6507,
      "als": 6508,
      "colors": 6509,
      "Ġrefresh": 6510,
      "Ġhy": 6511,
      "Ġconstruct": 6512,
      "Users": 6513,
      "Ġcertificate": 6514,
      "Week": 6515,
      "scroll": 6516,
      "ĠLe": 6517,
      "Lat": 6518,
      "lev": 6519,
      "PROPER": 6520,
      "tracking": 6521,
      "Bits": 6522,
      "backup": 6523,
      "Sets": 6524,
      "HEADER": 6525,
      "Ġmedia": 6526,
      "flatten": 6527,
      "Iss": 6528,
      "Mail": 6529,
      "Ġnever": 6530,
      "\"].": 6531,
      "inator": 6532,
      "ĠCLI": 6533,
      "Backend": 6534,
      "andling": 6535,
      "ĠAc": 6536,
      "coming": 6537,
      "ĠclassName": 6538,
      "Handlers": 6539,
      "Ġdrop": 6540,
      "ĠDateTime": 6541,
      "video": 6542,
      "__)": 6543,
      "Ġut": 6544,
      "DataFrame": 6545,
      "Ġenable": 6546,
      "ĠFl": 6547,
      "Ġ\"$": 6548,
      "Ġextensions": 6549,
      "COM": 6550,
      "\"}": 6551,
      "ĠInitial": 6552,
      "ĠAs": 6553,
      "Constructor": 6554,
      "Ġserialize": 6555,
      "TABLE": 6556,
      "analy": 6557,
      "Ġ{}'.": 6558,
      "credentials": 6559,
      "CLI": 6560,
      "INSTANCE": 6561,
      "xFF": 6562,
      "Ġlibrary": 6563,
      ">`": 6564,
      "Pag": 6565,
      "You": 6566,
      "Ġsecurity": 6567,
      "ĠCollections": 6568,
      "ĠBig": 6569,
      "getQuery": 6570,
      "ĠEntity": 6571,
      "ATED": 6572,
      "oose": 6573,
      "IGHT": 6574,
      "illi": 6575,
      "categories": 6576,
      "sr": 6577,
      "unct": 6578,
      "Ġautomatic": 6579,
      "ĠFirst": 6580,
      "Export": 6581,
      "dirs": 6582,
      "Ġ'');": 6583,
      "Versions": 6584,
      "era": 6585,
      "åŃ": 6586,
      "foo": 6587,
      "PDO": 6588,
      "dater": 6589,
      "ibling": 6590,
      "LOGGER": 6591,
      "ierarchy": 6592,
      "Clause": 6593,
      "Ġmodules": 6594,
      ",\"": 6595,
      "Ġtyp": 6596,
      "ĠPer": 6597,
      "Ġadmin": 6598,
      "browser": 6599,
      "(',',": 6600,
      "Random": 6601,
      "-\\": 6602,
      "Ġexceptions": 6603,
      "ĠTask": 6604,
      "Selected": 6605,
      "Backup": 6606,
      "SOURCE": 6607,
      "sin": 6608,
      "Extra": 6609,
      "ocus": 6610,
      "Ġ\"/\"": 6611,
      "Dispatcher": 6612,
      "Ġbar": 6613,
      "ĠSto": 6614,
      "Ġsets": 6615,
      "Seq": 6616,
      "Retry": 6617,
      "Ġembed": 6618,
      "Esc": 6619,
      "Ġseparator": 6620,
      "Named": 6621,
      "Delay": 6622,
      "ĠAssert": 6623,
      "Ġprocessed": 6624,
      "activity": 6625,
      "ĠRef": 6626,
      "Gen": 6627,
      "}:": 6628,
      "constructor": 6629,
      "bre": 6630,
      "xa": 6631,
      "ĠRed": 6632,
      "LAB": 6633,
      "andidates": 6634,
      "Extract": 6635,
      "Contact": 6636,
      "gy": 6637,
      "vector": 6638,
      "family": 6639,
      "pound": 6640,
      "entrySet": 6641,
      "ĠThere": 6642,
      "Ġstates": 6643,
      "Pass": 6644,
      "Ġ).": 6645,
      "xid": 6646,
      "ĠConfiguration": 6647,
      "LIST": 6648,
      "']->": 6649,
      "Ġfast": 6650,
      "Ġleg": 6651,
      "Ġservices": 6652,
      "Ġ*=": 6653,
      "Ġinv": 6654,
      "counts": 6655,
      "Ġqual": 6656,
      "Ġ30": 6657,
      "Currency": 6658,
      "Ġeffect": 6659,
      "snapshot": 6660,
      "Py": 6661,
      "Ġabsolute": 6662,
      "coll": 6663,
      "Ġæ": 6664,
      "Install": 6665,
      "46": 6666,
      "Shared": 6667,
      "team": 6668,
      "Tuple": 6669,
      "gregation": 6670,
      "Ġ~": 6671,
      "pet": 6672,
      "Ġnorm": 6673,
      "ĠTry": 6674,
      "Ġparsing": 6675,
      "Ġdescriptor": 6676,
      "Commerce": 6677,
      "entities": 6678,
      "ĠCON": 6679,
      "Ġpad": 6680,
      "tain": 6681,
      "lyph": 6682,
      "NewErr": 6683,
      "ctrine": 6684,
      "sources": 6685,
      "mpl": 6686,
      "Ġsmall": 6687,
      "Ġusage": 6688,
      "ITH": 6689,
      "GRO": 6690,
      "Ġrepresenting": 6691,
      "START": 6692,
      "ĠOS": 6693,
      "ĠPl": 6694,
      "TRAN": 6695,
      "Append": 6696,
      "Scheme": 6697,
      "Ġsomething": 6698,
      "Records": 6699,
      "Align": 6700,
      "qa": 6701,
      "Ġdimensions": 6702,
      "ĠĠĠĠĠĠĠĠĠĠĠĠĠĠĠĠĠĠĠĠĠĠĠĠĠĠĠĠĠĠĠĠĠĠĠĠĠĠĠĠĠĠ": 6703,
      "Ġ'?": 6704,
      "ĠYii": 6705,
      "Ġincluded": 6706,
      "SIG": 6707,
      "redis": 6708,
      "Click": 6709,
      "(...)\");": 6710,
      "Release": 6711,
      "seed": 6712,
      "Ġrect": 6713,
      "REF": 6714,
      "ĉĉčĊ": 6715,
      "Ġmatched": 6716,
      "ĠProtocolMarshaller": 6717,
      "=\"'": 6718,
      ":\\\"": 6719,
      "CHAR": 6720,
      "NewErrParam": 6721,
      "Ġ\"--": 6722,
      "_'": 6723,
      "aut": 6724,
      "ĠWork": 6725,
      "ĠDocument": 6726,
      "']),": 6727,
      "grad": 6728,
      "Trigger": 6729,
      "GS": 6730,
      "Ġprevent": 6731,
      "Ġ])": 6732,
      "Ġspan": 6733,
      "ĠHe": 6734,
      "umbnail": 6735,
      "newInstance": 6736,
      "Ġradius": 6737,
      "stor": 6738,
      "Renderer": 6739,
      "Ġpromise": 6740,
      "Pages": 6741,
      "yaml": 6742,
      "ashboard": 6743,
      "Ġactiv": 6744,
      "ĠNe": 6745,
      "ci": 6746,
      "fac": 6747,
      "Lif": 6748,
      "strtolower": 6749,
      "Ġactually": 6750,
      "lies": 6751,
      "vile": 6752,
      "Ġpatch": 6753,
      "subscription": 6754,
      "crete": 6755,
      "Members": 6756,
      "TED": 6757,
      "ividual": 6758,
      "Into": 6759,
      "ĠNull": 6760,
      "acl": 6761,
      "quival": 6762,
      ".'.": 6763,
      "ifies": 6764,
      "ttl": 6765,
      "GLOBALS": 6766,
      "Ġagainst": 6767,
      "evalu": 6768,
      "ĠPoint": 6769,
      "OwnProperty": 6770,
      "Attachment": 6771,
      "Ġaccording": 6772,
      "ĠTree": 6773,
      "Google": 6774,
      "Ġangle": 6775,
      "inger": 6776,
      "closed": 6777,
      "Attach": 6778,
      "Ġdesired": 6779,
      "ĠMatch": 6780,
      "Ġ'*'": 6781,
      "Ġescape": 6782,
      "Transl": 6783,
      "Ġinstalled": 6784,
      "\\/": 6785,
      "oler": 6786,
      "jav": 6787,
      "çĶ": 6788,
      "aker": 6789,
      "Scroll": 6790,
      "loads": 6791,
      "ampling": 6792,
      "Ġdue": 6793,
      "SCR": 6794,
      "jected": 6795,
      "segments": 6796,
      "Ġasset": 6797,
      "atest": 6798,
      "Ġpersist": 6799,
      "rypto": 6800,
      "weights": 6801,
      "getE": 6802,
      "Ġ(!(": 6803,
      "MESSAGE": 6804,
      "Ġblob": 6805,
      "Tables": 6806,
      "Cons": 6807,
      "configs": 6808,
      "aemon": 6809,
      "FOLLOW": 6810,
      "Ġunknown": 6811,
      "90": 6812,
      "inu": 6813,
      "ĠCur": 6814,
      "getNode": 6815,
      "clud": 6816,
      "LOCK": 6817,
      "matched": 6818,
      "Algorithm": 6819,
      "ĠSend": 6820,
      "=',": 6821,
      "================================": 6822,
      "Ġsummary": 6823,
      "Ġchecks": 6824,
      "setopt": 6825,
      "Ġfp": 6826,
      "initialize": 6827,
      "åħ": 6828,
      "Ġpending": 6829,
      "packet": 6830,
      "Ġlists": 6831,
      "Translation": 6832,
      "BASE": 6833,
      "Marker": 6834,
      "hr": 6835,
      "ism": 6836,
      "ĠAttributeError": 6837,
      "]{": 6838,
      "Ġps": 6839,
      "Ġforward": 6840,
      "Ġgra": 6841,
      "Ġconfigure": 6842,
      "getFile": 6843,
      "ĠOperation": 6844,
      "Main": 6845,
      "Ġactions": 6846,
      "Lang": 6847,
      "Ġgrad": 6848,
      "ĠBlock": 6849,
      "PRI": 6850,
      "getCode": 6851,
      "()):": 6852,
      "Blocks": 6853,
      "lems": 6854,
      "AF": 6855,
      "Mut": 6856,
      "ĠYou": 6857,
      "renderer": 6858,
      "IPT": 6859,
      "Ġprogram": 6860,
      "Ġcreating": 6861,
      "UNT": 6862,
      "Router": 6863,
      "Ġwarnings": 6864,
      "SUB": 6865,
      "Remo": 6866,
      "ka": 6867,
      "Ġrelated": 6868,
      "Tasks": 6869,
      "setName": 6870,
      "Tick": 6871,
      "Ġ11": 6872,
      "LED": 6873,
      "walk": 6874,
      "xd": 6875,
      "Hex": 6876,
      "amma": 6877,
      ".)": 6878,
      "tz": 6879,
      "(\"<": 6880,
      "RAY": 6881,
      "atal": 6882,
      "HA": 6883,
      "58": 6884,
      "PORT": 6885,
      "ium": 6886,
      "ctrl": 6887,
      "otential": 6888,
      "efficient": 6889,
      "Ġpid": 6890,
      "ynchronous": 6891,
      "native": 6892,
      "47": 6893,
      "icket": 6894,
      "++]": 6895,
      "Execute": 6896,
      "Ġimplementation": 6897,
      "(\"-": 6898,
      "striction": 6899,
      "Ġnegative": 6900,
      "Present": 6901,
      "Ġexpand": 6902,
      "Monitor": 6903,
      "repeat": 6904,
      "secure": 6905,
      "`)": 6906,
      "MIT": 6907,
      "propertyName": 6908,
      "choice": 6909,
      "Ġmachine": 6910,
      "iso": 6911,
      "cluding": 6912,
      "versation": 6913,
      "dumps": 6914,
      "Foreign": 6915,
      "Branch": 6916,
      "ĠPri": 6917,
      "Ġdump": 6918,
      "ĠGenerate": 6919,
      "VICE": 6920,
      "Ġvirtual": 6921,
      "VM": 6922,
      "screen": 6923,
      "Codes": 6924,
      "UNCTION": 6925,
      "Ġmut": 6926,
      "ĠGe": 6927,
      "Cancel": 6928,
      "Sheet": 6929,
      "Ġ'__": 6930,
      "Team": 6931,
      "Ġrc": 6932,
      "Running": 6933,
      "Ġgit": 6934,
      "Ġarchive": 6935,
      "Reset": 6936,
      "Ġaxes": 6937,
      "Ġcookie": 6938,
      "Measure": 6939,
      "LOC": 6940,
      "REG": 6941,
      "comments": 6942,
      "Scan": 6943,
      "elist": 6944,
      "ĠDefaults": 6945,
      "usage": 6946,
      "Ġmarker": 6947,
      "å®": 6948,
      "ĠRuntimeError": 6949,
      ")==": 6950,
      "Ġidentity": 6951,
      "endswith": 6952,
      "ĠRout": 6953,
      "connected": 6954,
      "Ġcir": 6955,
      "serialized": 6956,
      "license": 6957,
      "epCopy": 6958,
      "Ġauthentication": 6959,
      "Include": 6960,
      "erial": 6961,
      "mg": 6962,
      "Ġpartial": 6963,
      "erved": 6964,
      "Nonnull": 6965,
      "attachment": 6966,
      "Allow": 6967,
      "els": 6968,
      "ĠcaseIfc": 6969,
      "ĠSchema": 6970,
      "Distance": 6971,
      "roke": 6972,
      "ike": 6973,
      "bean": 6974,
      "scriptions": 6975,
      "Trim": 6976,
      "porter": 6977,
      "getMethod": 6978,
      "Ġalign": 6979,
      "clazz": 6980,
      "Ġconsumer": 6981,
      "ceed": 6982,
      "=_": 6983,
      "....": 6984,
      "å¤": 6985,
      "Ġbig": 6986,
      "ggle": 6987,
      "Ġorig": 6988,
      "Ġ'@": 6989,
      "Ġneighb": 6990,
      "Ġscheme": 6991,
      "Ġreject": 6992,
      "versions": 6993,
      "ĠVersion": 6994,
      "Ġsupplied": 6995,
      "Zero": 6996,
      "TableMap": 6997,
      "phi": 6998,
      "42": 6999,
      "Ġstmt": 7000,
      "fc": 7001,
      "Ġseed": 7002,
      "poly": 7003,
      "Ġdependency": 7004,
      "ĠOption": 7005,
      "PL": 7006,
      "pay": 7007,
      "Ġstderr": 7008,
      "consumer": 7009,
      "ĠIS": 7010,
      "Ġmembers": 7011,
      "07": 7012,
      "Ġresolved": 7013,
      "NGTH": 7014,
      "ducer": 7015,
      "ĠTRUE": 7016,
      "pping": 7017,
      "typ": 7018,
      "Ġcases": 7019,
      "Ġlin": 7020,
      "illed": 7021,
      "WARNING": 7022,
      "machine": 7023,
      "SHA": 7024,
      "filtered": 7025,
      "axes": 7026,
      "rgb": 7027,
      "0275": 7028,
      "\\\"\"": 7029,
      "DEX": 7030,
      "servers": 7031,
      "Ġreading": 7032,
      "Ġslot": 7033,
      "Ġdependencies": 7034,
      "LENGTH": 7035,
      "]));": 7036,
      "foc": 7037,
      "ially": 7038,
      "tip": 7039,
      "seek": 7040,
      "Dataset": 7041,
      "ĠAct": 7042,
      "EObject": 7043,
      "cred": 7044,
      "getEntity": 7045,
      "Ġtick": 7046,
      "ffers": 7047,
      "Ġpercent": 7048,
      "Fragment": 7049,
      "FE": 7050,
      "enticated": 7051,
      "Ġproc": 7052,
      "Ġdispatch": 7053,
      "ĠSession": 7054,
      "Ġvisit": 7055,
      "Ġstrict": 7056,
      "ĠGroup": 7057,
      "dims": 7058,
      "bus": 7059,
      "ĠWith": 7060,
      "Ġvertex": 7061,
      "Ġconverted": 7062,
      "Ġshared": 7063,
      "Criteria": 7064,
      "Ġitself": 7065,
      "equal": 7066,
      "setParameter": 7067,
      "Ġbad": 7068,
      "fa": 7069,
      "ster": 7070,
      "MPTY": 7071,
      "Username": 7072,
      "getResponse": 7073,
      "EM": 7074,
      "olation": 7075,
      "Ġphase": 7076,
      "getContext": 7077,
      "Ġversions": 7078,
      "additional": 7079,
      "Ġsec": 7080,
      "ĠJob": 7081,
      "getService": 7082,
      "fragment": 7083,
      "once": 7084,
      "orderBy": 7085,
      "enticate": 7086,
      "Ġlinks": 7087,
      "eq": 7088,
      "mult": 7089,
      "arb": 7090,
      "ĠON": 7091,
      "Ġappropri": 7092,
      "Ġpartic": 7093,
      "95": 7094,
      "pipe": 7095,
      ",\\\"": 7096,
      "packages": 7097,
      "ClassLoader": 7098,
      "ĠSearch": 7099,
      "\"][\"": 7100,
      "Ġkernel": 7101,
      "Ġpermissions": 7102,
      "userId": 7103,
      "uest": 7104,
      "oring": 7105,
      "Ġalloc": 7106,
      "Css": 7107,
      "special": 7108,
      "radius": 7109,
      "Ġsk": 7110,
      "'](": 7111,
      "ado": 7112,
      "ĉĉĉĉĊ": 7113,
      "crease": 7114,
      "Ġwritten": 7115,
      "ĠInputStream": 7116,
      "aug": 7117,
      "dependencies": 7118,
      "freq": 7119,
      "Ġfixed": 7120,
      "/\"": 7121,
      "Revision": 7122,
      "ĠConstants": 7123,
      "Push": 7124,
      "Ġarea": 7125,
      "pn": 7126,
      "refs": 7127,
      "({'": 7128,
      "Ġcour": 7129,
      "PS": 7130,
      "ares": 7131,
      "INVALID": 7132,
      "getContent": 7133,
      "forward": 7134,
      "geo": 7135,
      "Shop": 7136,
      "Ġ'+": 7137,
      "Ġproblem": 7138,
      "assets": 7139,
      "hide": 7140,
      "Ġfire": 7141,
      "Ġcli": 7142,
      "cwd": 7143,
      "Utility": 7144,
      "OIN": 7145,
      "bined": 7146,
      "ota": 7147,
      "ĠSI": 7148,
      "Bus": 7149,
      "virt": 7150,
      "ainers": 7151,
      "43": 7152,
      "67": 7153,
      "Ġmac": 7154,
      "deleted": 7155,
      "Ġsn": 7156,
      "ov": 7157,
      "Ġicon": 7158,
      "Ġtw": 7159,
      "Unsupported": 7160,
      ".%": 7161,
      "Ġschedule": 7162,
      "marker": 7163,
      "Bro": 7164,
      "ĠLinked": 7165,
      "big": 7166,
      "[\\\"\\\\": 7167,
      "FieldName": 7168,
      "chr": 7169,
      "mediate": 7170,
      "Geometry": 7171,
      ".\\": 7172,
      "reshape": 7173,
      "inc": 7174,
      "$/": 7175,
      "('--": 7176,
      "SV": 7177,
      "ĠĠĠĠĉĉ": 7178,
      "need": 7179,
      "flux": 7180,
      "Ġwarning": 7181,
      "Dependency": 7182,
      "')))": 7183,
      "Ġpositive": 7184,
      "dro": 7185,
      ")\"": 7186,
      "]).": 7187,
      "etype": 7188,
      "subscribe": 7189,
      "imate": 7190,
      "SCRIPT": 7191,
      "getX": 7192,
      "disk": 7193,
      "bounds": 7194,
      "9999": 7195,
      "avigation": 7196,
      "IZ": 7197,
      "Ġhistory": 7198,
      "ĠCre": 7199,
      "Priority": 7200,
      "EventListener": 7201,
      "Ġcompile": 7202,
      "Ġbackground": 7203,
      "CC": 7204,
      "urls": 7205,
      "ecycle": 7206,
      "Ġcharset": 7207,
      "Screen": 7208,
      "Ġshift": 7209,
      "Ġformatted": 7210,
      "hasOwnProperty": 7211,
      "gate": 7212,
      "NODE": 7213,
      "mapper": 7214,
      "enar": 7215,
      "Score": 7216,
      "ands": 7217,
      "Ġpriority": 7218,
      "ĠHashSet": 7219,
      "Fixed": 7220,
      "Ġperm": 7221,
      "ROOT": 7222,
      "plotlib": 7223,
      "Ġfiltered": 7224,
      "perature": 7225,
      "Collector": 7226,
      "ilation": 7227,
      "timer": 7228,
      "(\\\"": 7229,
      "Ġretval": 7230,
      "ĠFormat": 7231,
      "Ġeditor": 7232,
      "UPDATE": 7233,
      "Ġdefer": 7234,
      "recursive": 7235,
      "lid": 7236,
      "SPACE": 7237,
      "Ġfeed": 7238,
      "Ġcast": 7239,
      "cod": 7240,
      "Defaults": 7241,
      "ably": 7242,
      "ĠUT": 7243,
      "MAP": 7244,
      "()}": 7245,
      "ĠNow": 7246,
      "Supported": 7247,
      "sence": 7248,
      "dep": 7249,
      "Assert": 7250,
      "Ġmerged": 7251,
      "Archive": 7252,
      "indexes": 7253,
      "targets": 7254,
      "iki": 7255,
      "ATTRIB": 7256,
      "vec": 7257,
      "More": 7258,
      "Ship": 7259,
      "Repo": 7260,
      "Merge": 7261,
      "TOKEN": 7262,
      "('{": 7263,
      "Hint": 7264,
      "phone": 7265,
      "Es": 7266,
      "\",\"": 7267,
      "Ġrestore": 7268,
      "Ġmount": 7269,
      "Reason": 7270,
      "atory": 7271,
      "NONE": 7272,
      "statusCode": 7273,
      "(?:": 7274,
      "ĠBuffered": 7275,
      "iet": 7276,
      "Ġbottom": 7277,
      "currentTime": 7278,
      "Ġ</": 7279,
      "ĠĠĠĠĠĠĠĠĠĠĠĠĠĠĠĠĠĠĠĠĠĠĠĠĠĠĠĠĠĠĠĠĠĠĠĠĠĠĠĠĠĠĠĠĠĠĠĠĠĠĠ": 7280,
      "ITION": 7281,
      "ceptor": 7282,
      "plicit": 7283,
      "iry": 7284,
      "Ġ':'": 7285,
      "Ġcaller": 7286,
      "shared": 7287,
      "remo": 7288,
      "Standard": 7289,
      "Annot": 7290,
      "'\"": 7291,
      "SR": 7292,
      "Ġanalysis": 7293,
      "lc": 7294,
      "Ġstarted": 7295,
      "Sel": 7296,
      "getDe": 7297,
      "Updated": 7298,
      "Ġimplemented": 7299,
      "Ġautomatically": 7300,
      "Illegal": 7301,
      "Tem": 7302,
      "Ġadjust": 7303,
      "Ġcandidate": 7304,
      "ĠHtml": 7305,
      "Begin": 7306,
      "commerce": 7307,
      "Ġpur": 7308,
      "iness": 7309,
      "Ġyang": 7310,
      "timezone": 7311,
      "Balancer": 7312,
      "Ġndarray": 7313,
      "uite": 7314,
      "Editor": 7315,
      "stringify": 7316,
      "Ġflush": 7317,
      "ĠDIRECTORY": 7318,
      "Ġbinding": 7319,
      "ysical": 7320,
      "character": 7321,
      "Definitions": 7322,
      "ĠColor": 7323,
      "URN": 7324,
      "Visitor": 7325,
      "(\".": 7326,
      "izing": 7327,
      "Ġshell": 7328,
      "ĠExpression": 7329,
      "Matches": 7330,
      "65": 7331,
      "Sample": 7332,
      "Distr": 7333,
      "inline": 7334,
      "asis": 7335,
      "Ġoverwrite": 7336,
      "aps": 7337,
      "Ġloader": 7338,
      "descriptor": 7339,
      "Country": 7340,
      "Links": 7341,
      "âĶ": 7342,
      "Contains": 7343,
      "Components": 7344,
      "Ġsuccessfully": 7345,
      "urnal": 7346,
      "Ġtables": 7347,
      "FLA": 7348,
      "person": 7349,
      "ĠresourceGroupName": 7350,
      "PTION": 7351,
      "aterial": 7352,
      "standard": 7353,
      "ssh": 7354,
      "}()": 7355,
      "cnt": 7356,
      "'\",": 7357,
      "Ġjs": 7358,
      "deli": 7359,
      "Ġkw": 7360,
      "cid": 7361,
      "Ġfree": 7362,
      "ailability": 7363,
      "Ġsources": 7364,
      "qb": 7365,
      "Ġiteration": 7366,
      "lide": 7367,
      "Ġmenu": 7368,
      "assoc": 7369,
      "etrieve": 7370,
      ":])": 7371,
      "ĠWhether": 7372,
      "Origin": 7373,
      "Health": 7374,
      "Ġgreater": 7375,
      "Customer": 7376,
      "hour": 7377,
      "ascript": 7378,
      "Shape": 7379,
      "cannot": 7380,
      "Ġ\\'": 7381,
      "rompt": 7382,
      "CUR": 7383,
      "margin": 7384,
      "Assignment": 7385,
      "ever": 7386,
      "ĠColumn": 7387,
      "Patch": 7388,
      "Artifact": 7389,
      "aking": 7390,
      "jobs": 7391,
      "Basic": 7392,
      "nable": 7393,
      "Ġeval": 7394,
      "dian": 7395,
      "istent": 7396,
      "Ġsy": 7397,
      "Ġyaml": 7398,
      "Ġmapped": 7399,
      "Ġden": 7400,
      "relationship": 7401,
      "Entities": 7402,
      "urable": 7403,
      "Ġrv": 7404,
      "BagConstraints": 7405,
      "got": 7406,
      "Ġsat": 7407,
      "ĠItem": 7408,
      "Tile": 7409,
      "Ġnotification": 7410,
      "ĠLocal": 7411,
      "agraph": 7412,
      "calendar": 7413,
      "sections": 7414,
      "Slot": 7415,
      "ixin": 7416,
      "Debugf": 7417,
      "ros": 7418,
      "Decoder": 7419,
      "anitize": 7420,
      "getText": 7421,
      "EVENT": 7422,
      "eff": 7423,
      "orders": 7424,
      "ĠSup": 7425,
      "ird": 7426,
      "absolute": 7427,
      "CACHE": 7428,
      "loser": 7429,
      "Ġmeasure": 7430,
      "Evalu": 7431,
      "izable": 7432,
      "Master": 7433,
      "Ġdisabled": 7434,
      "aces": 7435,
      "USE": 7436,
      "Ġconstant": 7437,
      "Ġconnected": 7438,
      "Ġoperations": 7439,
      "cart": 7440,
      "aves": 7441,
      "WithContext": 7442,
      "Ġmodify": 7443,
      "named": 7444,
      "ĠWindow": 7445,
      "Ġdecorator": 7446,
      "ĠVector": 7447,
      "Program": 7448,
      "Ġanything": 7449,
      "detail": 7450,
      "Reply": 7451,
      "SECON": 7452,
      "Theme": 7453,
      "confirm": 7454,
      "phpcs": 7455,
      "compress": 7456,
      "ĠĠĠĠĠĠĠĠĠĠĠĠĠĠĠĠĠĠĠĠĠĠĠĠĠĠĠĠĠĠĠĠĠĠĠĠĠĠĠĠĠĠĠĠ": 7457,
      "Ġplugins": 7458,
      "bg": 7459,
      "ANGE": 7460,
      "expect": 7461,
      "Ġseen": 7462,
      "Ġdev": 7463,
      "Ġgeometry": 7464,
      "Ġgu": 7465,
      "ae": 7466,
      "Addresses": 7467,
      "ĠExec": 7468,
      "ĠAp": 7469,
      "II": 7470,
      "getConnection": 7471,
      "PROPERTY": 7472,
      "methodName": 7473,
      "ĠDataFrame": 7474,
      "amps": 7475,
      "Conversion": 7476,
      "docker": 7477,
      "inf": 7478,
      "ically": 7479,
      "Ġworking": 7480,
      "getObject": 7481,
      "dp": 7482,
      "strument": 7483,
      "cpu": 7484,
      "requests": 7485,
      "ble": 7486,
      "tail": 7487,
      "Closed": 7488,
      "Lex": 7489,
      "ring": 7490,
      "backtracking": 7491,
      "000000": 7492,
      "||(": 7493,
      "duction": 7494,
      "Ġcomments": 7495,
      "reserve": 7496,
      "85": 7497,
      "Feed": 7498,
      "spection": 7499,
      "Ġsteps": 7500,
      "Ġdigest": 7501,
      "rank": 7502,
      "TLS": 7503,
      "Ġchars": 7504,
      "Ġinvoke": 7505,
      "dx": 7506,
      "Ġdeprecated": 7507,
      "Js": 7508,
      "!!": 7509,
      "][]": 7510,
      "Excel": 7511,
      "ratio": 7512,
      "serializer": 7513,
      "Ġhelper": 7514,
      "ropy": 7515,
      "ij": 7516,
      "workspace": 7517,
      "Ġ::": 7518,
      "Ġfname": 7519,
      "expire": 7520,
      "ĠĠĠĠĠĠĠĠĠĠĠĠĠĠĠĠĠĠĠĠĠĠĠĠĠĠĠĠĠĠĠĠĠĠĠĠĠĠĠĠĠĠĠĠĠ": 7521,
      "parseInt": 7522,
      "ĠMem": 7523,
      "Ġallows": 7524,
      "scall": 7525,
      "Ġnumeric": 7526,
      "Ġcatalog": 7527,
      "Indent": 7528,
      "Ġpipeline": 7529,
      "ĠParameter": 7530,
      "ral": 7531,
      "Ġbackup": 7532,
      "è®": 7533,
      "HashMap": 7534,
      "Extensions": 7535,
      "\\\"](": 7536,
      "GL": 7537,
      "nc": 7538,
      "Ġnb": 7539,
      "Ġrank": 7540,
      "authorization": 7541,
      ")'": 7542,
      "ios": 7543,
      "ĠArrays": 7544,
      "1000": 7545,
      "FUNCTION": 7546,
      "Ġnone": 7547,
      "Ġmet": 7548,
      "Functions": 7549,
      "Ġiv": 7550,
      "getAll": 7551,
      "sy": 7552,
      "ench": 7553,
      "ColumnName": 7554,
      "Ġhostname": 7555,
      "Direction": 7556,
      "dic": 7557,
      "aler": 7558,
      "loss": 7559,
      "focus": 7560,
      "shell": 7561,
      "oices": 7562,
      "Ġwin": 7563,
      "Ġ[-": 7564,
      "Require": 7565,
      "gree": 7566,
      "}',": 7567,
      "unsafe": 7568,
      "riterion": 7569,
      "nl": 7570,
      "remaining": 7571,
      "Ġpol": 7572,
      "Ġdetermin": 7573,
      "Words": 7574,
      "Ġindexes": 7575,
      "ĠStringBuffer": 7576,
      "kit": 7577,
      "Ġalong": 7578,
      "dm": 7579,
      ")])": 7580,
      "Ġtermin": 7581,
      "([$": 7582,
      "aren": 7583,
      "__.": 7584,
      "Border": 7585,
      "('.',": 7586,
      "igrations": 7587,
      "Ġadapter": 7588,
      "wards": 7589,
      "Ġcolors": 7590,
      "Ġbasic": 7591,
      "article": 7592,
      "ORDER": 7593,
      "Workspace": 7594,
      "]\",": 7595,
      "aper": 7596,
      "grees": 7597,
      "twig": 7598,
      "Analy": 7599,
      "97": 7600,
      "ĠAccess": 7601,
      "ulator": 7602,
      "fact": 7603,
      "Ġanaly": 7604,
      "Ġjav": 7605,
      "ette": 7606,
      "front": 7607,
      "Ġappropriate": 7608,
      "ĠBy": 7609,
      "AST": 7610,
      "Ð»": 7611,
      "ĠRel": 7612,
      "ĠBack": 7613,
      "cripts": 7614,
      "ceeded": 7615,
      "getTable": 7616,
      "ips": 7617,
      "arc": 7618,
      "Ġregular": 7619,
      "tok": 7620,
      "::_": 7621,
      "ric": 7622,
      "{'": 7623,
      "Ġlang": 7624,
      "Article": 7625,
      "pear": 7626,
      "('/^": 7627,
      "reject": 7628,
      "è¡": 7629,
      "sessment": 7630,
      "Ġcols": 7631,
      "terms": 7632,
      "ĠVAL": 7633,
      "Ġcr": 7634,
      "LOAD": 7635,
      "Ġpylint": 7636,
      "ards": 7637,
      "ons": 7638,
      "erruptedException": 7639,
      "'d": 7640,
      "Ġ\".\"": 7641,
      "neighb": 7642,
      "States": 7643,
      "Ġsolution": 7644,
      "Ġwrong": 7645,
      "Ġwrapped": 7646,
      "Arrays": 7647,
      "ĠSkip": 7648,
      "sender": 7649,
      "æĺ": 7650,
      "Threshold": 7651,
      "ĠPO": 7652,
      "Ġcs": 7653,
      "ymlink": 7654,
      "\"',": 7655,
      "ĠPrint": 7656,
      "Ġnormalized": 7657,
      "functions": 7658,
      "Rest": 7659,
      "Ġ\\\\": 7660,
      "ez": 7661,
      "Ġapplied": 7662,
      "Association": 7663,
      "Ġchannels": 7664,
      "ittle": 7665,
      "BER": 7666,
      "annotations": 7667,
      "ĠStatus": 7668,
      "LAY": 7669,
      "\".$": 7670,
      "processing": 7671,
      "RPC": 7672,
      "Ġtargets": 7673,
      "ĠTag": 7674,
      "Ġcc": 7675,
      "Break": 7676,
      "Deleted": 7677,
      "Ġupdates": 7678,
      "geometry": 7679,
      "Syntax": 7680,
      "Div": 7681,
      "Generate": 7682,
      "Src": 7683,
      "ĠAction": 7684,
      "Ġsegments": 7685,
      "Logging": 7686,
      "Stmt": 7687,
      "getLocal": 7688,
      "Capacity": 7689,
      "Ġcourse": 7690,
      "Must": 7691,
      "OBJECT": 7692,
      "ĠĠĠĠĠĠĠĠĠĠĠĠĉ": 7693,
      "ĠContainer": 7694,
      "decimal": 7695,
      "Organization": 7696,
      "deep": 7697,
      "ĠDi": 7698,
      "Enable": 7699,
      "Units": 7700,
      "multiple": 7701,
      "åĬ": 7702,
      "ascii": 7703,
      "ĠInter": 7704,
      "Ġformatter": 7705,
      "Super": 7706,
      "xpath": 7707,
      "->__": 7708,
      "Sent": 7709,
      "ĠDon": 7710,
      "ĠAlso": 7711,
      "WORD": 7712,
      "listeners": 7713,
      "ĠClose": 7714,
      "Person": 7715,
      "Ġam": 7716,
      "gateway": 7717,
      "peed": 7718,
      "Ġcss": 7719,
      "Ġscreen": 7720,
      "MAGE": 7721,
      "ONG": 7722,
      "soft": 7723,
      "atibility": 7724,
      "ĠSign": 7725,
      "Ġglob": 7726,
      "andsh": 7727,
      "Ġlv": 7728,
      "ĠmethodName": 7729,
      "nav": 7730,
      "increment": 7731,
      "Pop": 7732,
      "expires": 7733,
      "ooth": 7734,
      "phpcsFile": 7735,
      "Ġwalk": 7736,
      "Routes": 7737,
      "Ġtransport": 7738,
      "Ġnoqa": 7739,
      "getElement": 7740,
      "ç»": 7741,
      "logical": 7742,
      "CFG": 7743,
      "clip": 7744,
      "plica": 7745,
      "Ġtensor": 7746,
      "Models": 7747,
      "CONTENT": 7748,
      "Decl": 7749,
      "Bin": 7750,
      "Segments": 7751,
      "ARRAY": 7752,
      "singleton": 7753,
      "LEMENT": 7754,
      "Clean": 7755,
      "vendor": 7756,
      "Ġpositions": 7757,
      "~~": 7758,
      "uman": 7759,
      "!\");": 7760,
      "Off": 7761,
      "ĠRecord": 7762,
      "calculate": 7763,
      "](": 7764,
      "amaz": 7765,
      "41": 7766,
      "Modules": 7767,
      "glob": 7768,
      "sock": 7769,
      "Old": 7770,
      "Ġreferences": 7771,
      "Ġ50": 7772,
      "orph": 7773,
      "Ġ$$": 7774,
      "ĠMax": 7775,
      "mkdir": 7776,
      "Final": 7777,
      "Ġcompleted": 7778,
      "Registration": 7779,
      "Const": 7780,
      "IGN": 7781,
      "'ve": 7782,
      "tls": 7783,
      ">\");": 7784,
      "Pk": 7785,
      "kb": 7786,
      "ASC": 7787,
      "Using": 7788,
      "TypeName": 7789,
      "Workflow": 7790,
      "ResponseWriter": 7791,
      "ĠĠĠĠĠĠĠĠĉ": 7792,
      "DataSource": 7793,
      "mbed": 7794,
      "manifest": 7795,
      "GROUP": 7796,
      "olerance": 7797,
      "logs": 7798,
      "Ġhparams": 7799,
      "Ġgene": 7800,
      "Oxid": 7801,
      "zen": 7802,
      "Ġrespon": 7803,
      "jango": 7804,
      "orth": 7805,
      "Ġchecked": 7806,
      "Platform": 7807,
      "Ġ%(": 7808,
      "YPE": 7809,
      "Dom": 7810,
      "quivalent": 7811,
      "][\"": 7812,
      "dispatcher": 7813,
      "ĠEnsure": 7814,
      "amazon": 7815,
      "ev": 7816,
      "nested": 7817,
      "processed": 7818,
      "canvas": 7819,
      "rev": 7820,
      "versed": 7821,
      "ADD": 7822,
      "ĠNOTE": 7823,
      "Ġtransition": 7824,
      "Ġartifact": 7825,
      ">\";": 7826,
      "ĠfileName": 7827,
      "ĠdefaultValue": 7828,
      "Ġdom": 7829,
      "Requests": 7830,
      "Ġinstant": 7831,
      "Ġdetect": 7832,
      "96": 7833,
      "aming": 7834,
      "ĠStore": 7835,
      "asy": 7836,
      "toupper": 7837,
      "Generated": 7838,
      "gz": 7839,
      "Endian": 7840,
      "finder": 7841,
      "middleware": 7842,
      "QUI": 7843,
      "It": 7844,
      "ĠQu": 7845,
      "ĠCl": 7846,
      "Ġdays": 7847,
      "|'": 7848,
      "'=>$": 7849,
      "jax": 7850,
      "Void": 7851,
      "Contract": 7852,
      "Relationship": 7853,
      "aybe": 7854,
      "Ġbash": 7855,
      "ĠFunc": 7856,
      "FORM": 7857,
      "usted": 7858,
      "ORM": 7859,
      "Pay": 7860,
      "tre": 7861,
      "ĠLook": 7862,
      "arning": 7863,
      "NV": 7864,
      "delimiter": 7865,
      "Ġms": 7866,
      "shutdown": 7867,
      "ech": 7868,
      "escaped": 7869,
      "fplib": 7870,
      "ĠValidation": 7871,
      "adapt": 7872,
      "Ġuid": 7873,
      "ĠLogger": 7874,
      "fplibPackage": 7875,
      "associ": 7876,
      "ĠUtils": 7877,
      "Ġtimer": 7878,
      "Ġaround": 7879,
      "Ġcloud": 7880,
      "Blank": 7881,
      "Xbase": 7882,
      "Hy": 7883,
      "getBody": 7884,
      "Ġenum": 7885,
      "Processing": 7886,
      "Ġconv": 7887,
      "Ġquote": 7888,
      "agn": 7889,
      "()];": 7890,
      "rp": 7891,
      "pipeline": 7892,
      "wb": 7893,
      "ĠXml": 7894,
      "Original": 7895,
      "virtual": 7896,
      "Ġear": 7897,
      "Ġaltern": 7898,
      "which": 7899,
      "dif": 7900,
      "algorithm": 7901,
      "ĠSave": 7902,
      "EOF": 7903,
      "ivery": 7904,
      "GIN": 7905,
      "ĠMon": 7906,
      "Ġ1024": 7907,
      "esis": 7908,
      "ordered": 7909,
      "ulated": 7910,
      "Chart": 7911,
      "Zip": 7912,
      "stub": 7913,
      "frac": 7914,
      "dependency": 7915,
      "Closure": 7916,
      "oment": 7917,
      "ĠSerial": 7918,
      "LIN": 7919,
      "Ġchecking": 7920,
      "Ok": 7921,
      "Used": 7922,
      "parents": 7923,
      "_(": 7924,
      "implement": 7925,
      "seg": 7926,
      "addChild": 7927,
      "Transformer": 7928,
      "cue": 7929,
      "chat": 7930,
      "rus": 7931,
      "stage": 7932,
      "cuit": 7933,
      "Ġ[%": 7934,
      "]],": 7935,
      "arrow": 7936,
      "mes": 7937,
      "Ġatt": 7938,
      "Flush": 7939,
      "ational": 7940,
      "Previous": 7941,
      "SAR": 7942,
      "Ġcos": 7943,
      "Chars": 7944,
      "Mount": 7945,
      "keywords": 7946,
      "endsWith": 7947,
      "amera": 7948,
      "Ġenter": 7949,
      "ĠPlease": 7950,
      "beat": 7951,
      "recipient": 7952,
      "dbc": 7953,
      "foot": 7954,
      "Predicate": 7955,
      ".+": 7956,
      "Ġmis": 7957,
      "ENCE": 7958,
      "Changes": 7959,
      "Ġenough": 7960,
      "issue": 7961,
      "Ġreturning": 7962,
      "ĠSort": 7963,
      "Ġchart": 7964,
      "placeholder": 7965,
      "Esales": 7966,
      "OxidEsales": 7967,
      "98": 7968,
      "workflow": 7969,
      "NaN": 7970,
      "Ġvars": 7971,
      "throws": 7972,
      "Ġadding": 7973,
      "ĠJava": 7974,
      "Ġoutputs": 7975,
      "Ġhold": 7976,
      "priv": 7977,
      "fixed": 7978,
      "blue": 7979,
      "lt": 7980,
      "Variant": 7981,
      "ipt": 7982,
      "most": 7983,
      "Ġnotify": 7984,
      "svg": 7985,
      "library": 7986,
      "Ġprior": 7987,
      "alert": 7988,
      "ivot": 7989,
      "Ġcsv": 7990,
      "rem": 7991,
      "resourceGroupName": 7992,
      "hosts": 7993,
      "floor": 7994,
      "Ġuintptr": 7995,
      "]}": 7996,
      "formats": 7997,
      "ĠLine": 7998,
      "iterable": 7999,
      "ĠImport": 8000,
      "getLogger": 8001,
      "ĠDOM": 8002,
      "Download": 8003,
      "getSession": 8004,
      "printStackTrace": 8005,
      "generated": 8006,
      "ingerprint": 8007,
      "RENT": 8008,
      "choices": 8009,
      "Infos": 8010,
      "ĠStop": 8011,
      "Ġctypes": 8012,
      "]])": 8013,
      "apps": 8014,
      "ĠMust": 8015,
      "Digest": 8016,
      "that": 8017,
      "Ġincrement": 8018,
      "monitor": 8019,
      "optParams": 8020,
      "Ġcounts": 8021,
      "Connector": 8022,
      "Gu": 8023,
      "Ġpackages": 8024,
      "('/',": 8025,
      "Make": 8026,
      "fw": 8027,
      "constant": 8028,
      "Dependencies": 8029,
      "Ġfinish": 8030,
      "Ġscroll": 8031,
      "must": 8032,
      ",)": 8033,
      "ĠĠĠĠĠĠĠĠĠĠĠĠĠĠĠĠĠĠĠĠĠĠĠĠĠĠĠĠĠĠĠĠĠĠĠĠĠĠĠĠĠĠĠĠĠĠ": 8034,
      "Ġfrequency": 8035,
      "using": 8036,
      "curren": 8037,
      "Ġtemporary": 8038,
      "ĠUN": 8039,
      "pin": 8040,
      "prompt": 8041,
      "Ġlatest": 8042,
      "Sig": 8043,
      "ĠArguments": 8044,
      "aliases": 8045,
      "Ġtail": 8046,
      "ĠCO": 8047,
      "')[": 8048,
      "Ġ[(": 8049,
      "(((": 8050,
      "Ġlonger": 8051,
      "dns": 8052,
      "perm": 8053,
      "Cfg": 8054,
      "([^": 8055,
      "\"\\": 8056,
      "configure": 8057,
      "Jobs": 8058,
      "normalized": 8059,
      "objWriter": 8060,
      "chemas": 8061,
      "Ġfigure": 8062,
      "CB": 8063,
      "constants": 8064,
      "avel": 8065,
      "Ġmatcher": 8066,
      "ru": 8067,
      "ĠCompute": 8068,
      "pick": 8069,
      "Ġchunks": 8070,
      "äº": 8071,
      "frames": 8072,
      "128": 8073,
      "Ġ'-'": 8074,
      "construct": 8075,
      "angular": 8076,
      "Ġready": 8077,
      "Ġconditions": 8078,
      "æĪ": 8079,
      "ised": 8080,
      "COMM": 8081,
      "unce": 8082,
      "parentNode": 8083,
      "Ġ++$": 8084,
      "CREATE": 8085,
      "Ġbrowser": 8086,
      "ventory": 8087,
      "nonce": 8088,
      "Ġrecursive": 8089,
      "ĠGraph": 8090,
      "Cols": 8091,
      "DED": 8092,
      "latest": 8093,
      "Ġmanifest": 8094,
      "AsString": 8095,
      "notNull": 8096,
      "Ġscalar": 8097,
      "asket": 8098,
      "Defined": 8099,
      "ĠDatabase": 8100,
      "Eshop": 8101,
      "syn": 8102,
      "Activ": 8103,
      "Ġsuccessful": 8104,
      "Ġhandlers": 8105,
      "rollers": 8106,
      "dating": 8107,
      "digit": 8108,
      "Ã©": 8109,
      "optim": 8110,
      "Ġevaluate": 8111,
      "ĠSw": 8112,
      "Attrs": 8113,
      "iq": 8114,
      "Ġroll": 8115,
      "ĠRegister": 8116,
      "Multiple": 8117,
      "Ġ'/')": 8118,
      "INDEX": 8119,
      "city": 8120,
      "StringUtils": 8121,
      "ãĢ": 8122,
      "PublicKey": 8123,
      "mun": 8124,
      "queryBuilder": 8125,
      "Ġsigma": 8126,
      "ilent": 8127,
      "converter": 8128,
      "ĠMulti": 8129,
      "phase": 8130,
      "bins": 8131,
      "ĠĠĠĠĠĠĠĠĠĠĠĠĉĠĠĠ": 8132,
      "Ġuc": 8133,
      "reflect": 8134,
      "Related": 8135,
      "ĠNoSuch": 8136,
      "Sm": 8137,
      "Ġ13": 8138,
      "classname": 8139,
      "styles": 8140,
      "Home": 8141,
      "Ġ$.": 8142,
      "Ġlisteners": 8143,
      "Ops": 8144,
      "cycle": 8145,
      "ua": 8146,
      "newRequest": 8147,
      "Ġ500": 8148,
      "Walk": 8149,
      "æĹ": 8150,
      "Ġpredicate": 8151,
      "mc": 8152,
      "Move": 8153,
      "70": 8154,
      "calc": 8155,
      "under": 8156,
      "Assignable": 8157,
      "impl": 8158,
      "arty": 8159,
      "Ġrelationship": 8160,
      "war": 8161,
      "keySet": 8162,
      "XY": 8163,
      "UNI": 8164,
      "Ġteam": 8165,
      "ĠReference": 8166,
      "ajor": 8167,
      "enario": 8168,
      "hint": 8169,
      "Ġsens": 8170,
      "retval": 8171,
      "aims": 8172,
      "WA": 8173,
      "setProperty": 8174,
      "ĠSource": 8175,
      "ĠFloat": 8176,
      "coord": 8177,
      "submission": 8178,
      "AWS": 8179,
      "itelist": 8180,
      "Ġep": 8181,
      "Ġcover": 8182,
      "Catalog": 8183,
      "Qualified": 8184,
      "itter": 8185,
      "Ġinterpol": 8186,
      "aching": 8187,
      "UMN": 8188,
      "ashes": 8189,
      "Ġabort": 8190,
      "Ġpopulate": 8191,
      "plural": 8192,
      "maj": 8193,
      "Fld": 8194,
      "mx": 8195,
      "Note": 8196,
      "WriteString": 8197,
      "HOST": 8198,
      "pur": 8199,
      "many": 8200,
      "ĠVer": 8201,
      "OFF": 8202,
      "constraints": 8203,
      "æĸĩ": 8204,
      "ĠinvalidParams": 8205,
      "ĠThrowable": 8206,
      "],[": 8207,
      "IV": 8208,
      "Ġsentence": 8209,
      "Ġfragment": 8210,
      "uncate": 8211,
      "Ġbug": 8212,
      "ritical": 8213,
      "Ġvalidator": 8214,
      "Ġvals": 8215,
      "den": 8216,
      "quent": 8217,
      "Ġintegr": 8218,
      "Ġasynchronous": 8219,
      "formatted": 8220,
      "COUNT": 8221,
      "inct": 8222,
      "theta": 8223,
      "IE": 8224,
      "Ġfd": 8225,
      "Ġtakes": 8226,
      "DAY": 8227,
      "Ġconsidered": 8228,
      "Drop": 8229,
      "inject": 8230,
      "alformed": 8231,
      "={}": 8232,
      "plier": 8233,
      "userAgent": 8234,
      "ems": 8235,
      "ARD": 8236,
      "Calcul": 8237,
      "Replication": 8238,
      "cir": 8239,
      "hood": 8240,
      "TypeReference": 8241,
      "Ġmesh": 8242,
      "scribed": 8243,
      "precision": 8244,
      "[_": 8245,
      "restore": 8246,
      "unpack": 8247,
      "TERN": 8248,
      "obs": 8249,
      "stitution": 8250,
      "Prob": 8251,
      "Git": 8252,
      "ores": 8253,
      "ipv": 8254,
      "ä½": 8255,
      "Ġstage": 8256,
      "Dev": 8257,
      "kv": 8258,
      "Pending": 8259,
      "getNext": 8260,
      "Ġtraining": 8261,
      "Ġpub": 8262,
      "migration": 8263,
      "merged": 8264,
      "Ġturn": 8265,
      "gene": 8266,
      "getF": 8267,
      "Ġev": 8268,
      "Other": 8269,
      "ByteArray": 8270,
      "Ġ']": 8271,
      "since": 8272,
      "getMax": 8273,
      "Ġdx": 8274,
      "Specification": 8275,
      "Ġfallback": 8276,
      "amel": 8277,
      "Pipeline": 8278,
      "audio": 8279,
      "umed": 8280,
      "çĶ¨": 8281,
      "=-": 8282,
      "ĠCopy": 8283,
      "gg": 8284,
      "Ġcent": 8285,
      "tensor": 8286,
      "ĠMAX": 8287,
      "finish": 8288,
      "mouse": 8289,
      "andshake": 8290,
      "resse": 8291,
      "Ġdelimiter": 8292,
      "issues": 8293,
      "Ġfinished": 8294,
      "Cost": 8295,
      "ager": 8296,
      "ĠTra": 8297,
      "Ġeverything": 8298,
      "Blob": 8299,
      "Mappings": 8300,
      "Ġsubprocess": 8301,
      "rror": 8302,
      "Percent": 8303,
      "vertex": 8304,
      "sel": 8305,
      "sigma": 8306,
      "Ġdynamic": 8307,
      "utoff": 8308,
      "Ġtransl": 8309,
      "Plugins": 8310,
      "currentTimeMillis": 8311,
      "Ġ'[": 8312,
      "ĠCalculate": 8313,
      "Ġgl": 8314,
      "energy": 8315,
      "ĠMo": 8316,
      "izations": 8317,
      "riend": 8318,
      "forms": 8319,
      "legend": 8320,
      "phrase": 8321,
      "Ġcells": 8322,
      "Ġbuilt": 8323,
      "more": 8324,
      "MOD": 8325,
      "Sdk": 8326,
      "Ġanswer": 8327,
      "Ġprecision": 8328,
      "srv": 8329,
      "åĽ": 8330,
      "ĠBY": 8331,
      "Boot": 8332,
      "translations": 8333,
      "ĠSQLException": 8334,
      "Native": 8335,
      "=\"\"": 8336,
      "letion": 8337,
      "Ġobtain": 8338,
      "Ġpandas": 8339,
      "ĠModule": 8340,
      "Leg": 8341,
      "AXB": 8342,
      "Credential": 8343,
      "agger": 8344,
      "measure": 8345,
      "Ġsyntax": 8346,
      "aken": 8347,
      "54": 8348,
      "Ġ\"]": 8349,
      "ĠProperties": 8350,
      "Ġinitialized": 8351,
      "Ġinspect": 8352,
      "ĠMod": 8353,
      "Ġsubscription": 8354,
      "references": 8355,
      "lists": 8356,
      "GEN": 8357,
      "alleng": 8358,
      "TEMP": 8359,
      "Vert": 8360,
      "prox": 8361,
      "failure": 8362,
      "\\\":": 8363,
      "ĠEach": 8364,
      "ServletRequest": 8365,
      "\"];": 8366,
      "____": 8367,
      "Nested": 8368,
      "peak": 8369,
      "Ġmakes": 8370,
      "basic": 8371,
      "Stage": 8372,
      "Ġsyn": 8373,
      "ĠOne": 8374,
      "Ġplease": 8375,
      "Refresh": 8376,
      "Ġdocker": 8377,
      "ĠFF": 8378,
      "ĠComp": 8379,
      "LANG": 8380,
      "`:": 8381,
      "mass": 8382,
      "inate": 8383,
      "PAGE": 8384,
      "wall": 8385,
      "Ġlarg": 8386,
      "mock": 8387,
      "ĠHow": 8388,
      "ĠDO": 8389,
      "BACK": 8390,
      "verity": 8391,
      "ĠAfplibPackage": 8392,
      "ĠImmutable": 8393,
      "High": 8394,
      "Ġels": 8395,
      "asource": 8396,
      "Console": 8397,
      "Grant": 8398,
      "Ġfails": 8399,
      "bos": 8400,
      "composer": 8401,
      "ĠExtract": 8402,
      "StringBuilder": 8403,
      "scalarNode": 8404,
      "Mouse": 8405,
      "Ġgeneric": 8406,
      "Ġfact": 8407,
      "Ġtok": 8408,
      "Browser": 8409,
      "Ġduplicate": 8410,
      "LIMIT": 8411,
      "Ġhidden": 8412,
      "Ġ)?": 8413,
      "Ġborder": 8414,
      "duced": 8415,
      "acc": 8416,
      "SARL": 8417,
      "lastIndex": 8418,
      "IR": 8419,
      "Ġpages": 8420,
      "Ġannotations": 8421,
      "Indexes": 8422,
      "hooks": 8423,
      "ĠVALUE": 8424,
      "revision": 8425,
      "Ġdestroy": 8426,
      "SetContext": 8427,
      "power": 8428,
      "rep": 8429,
      "Ġ\"{}": 8430,
      "ANT": 8431,
      "Configs": 8432,
      "Ġdirectories": 8433,
      "Ġmade": 8434,
      "Den": 8435,
      "Scheduler": 8436,
      "Ġconcat": 8437,
      "ĠFe": 8438,
      "Conditions": 8439,
      "Forward": 8440,
      "References": 8441,
      "Delta": 8442,
      "Implemented": 8443,
      "ERY": 8444,
      "Ġenc": 8445,
      "Ġele": 8446,
      "Tracker": 8447,
      "Center": 8448,
      "stamps": 8449,
      "ĠApplication": 8450,
      "ji": 8451,
      "attempt": 8452,
      "association": 8453,
      "LD": 8454,
      "Angle": 8455,
      "Ġ[[": 8456,
      "Delivery": 8457,
      "=='": 8458,
      "filesystem": 8459,
      "Invocation": 8460,
      "Ġpredict": 8461,
      "bc": 8462,
      "Ġcriteria": 8463,
      "AMETER": 8464,
      "Features": 8465,
      "translator": 8466,
      "Ġsep": 8467,
      "ĠAnnotation": 8468,
      "Received": 8469,
      "lastic": 8470,
      "Ġ-----": 8471,
      "acklist": 8472,
      "setText": 8473,
      "resize": 8474,
      "ErrInvalid": 8475,
      "ibm": 8476,
      "ookies": 8477,
      "Ġcoords": 8478,
      "chunks": 8479,
      "Ġpower": 8480,
      "500": 8481,
      "icles": 8482,
      "phab": 8483,
      "cursively": 8484,
      "tas": 8485,
      "outil": 8486,
      "Alloc": 8487,
      "TODO": 8488,
      "connections": 8489,
      "pairs": 8490,
      "Ġsha": 8491,
      "Notify": 8492,
      "warnings": 8493,
      "HttpRequest": 8494,
      "Rot": 8495,
      "icator": 8496,
      "zon": 8497,
      "PK": 8498,
      "velop": 8499,
      "panel": 8500,
      "ialect": 8501,
      "astype": 8502,
      "poll": 8503,
      "cmp": 8504,
      "player": 8505,
      "68": 8506,
      "program": 8507,
      "Ġindividual": 8508,
      "72": 8509,
      "execution": 8510,
      "tk": 8511,
      "getColumn": 8512,
      "Keyword": 8513,
      "acing": 8514,
      "_)": 8515,
      "taxonomy": 8516,
      "otion": 8517,
      "Manifest": 8518,
      "ĉĠĠĠĠĠ": 8519,
      "Ġ14": 8520,
      "transition": 8521,
      "inspect": 8522,
      "Ġsv": 8523,
      "Ġpull": 8524,
      "Ġtuples": 8525,
      "PR": 8526,
      "Ġrescue": 8527,
      "Ġentire": 8528,
      "cussion": 8529,
      "ä»¶": 8530,
      "Ġnative": 8531,
      "Accessor": 8532,
      "wg": 8533,
      "liance": 8534,
      "Ġterms": 8535,
      ":\",": 8536,
      "variance": 8537,
      "Ġlik": 8538,
      "Attempt": 8539,
      "////////////////": 8540,
      "getModel": 8541,
      "Ġwx": 8542,
      "PrimaryKey": 8543,
      "Encryption": 8544,
      "micro": 8545,
      "cookies": 8546,
      "ĠMark": 8547,
      "Ġactivity": 8548,
      "getSimple": 8549,
      "Finder": 8550,
      "KNO": 8551,
      "Ġssl": 8552,
      "cells": 8553,
      "Hub": 8554,
      "ĠEX": 8555,
      "Ġraised": 8556,
      "tcp": 8557,
      "gable": 8558,
      "Delim": 8559,
      "Ġepoch": 8560,
      "enant": 8561,
      "Deprecated": 8562,
      "Ġchan": 8563,
      "ðĳ": 8564,
      "getClient": 8565,
      "ðĳĦ": 8566,
      "Ġcop": 8567,
      "Ġbetter": 8568,
      "ByComparator": 8569,
      "maps": 8570,
      "ba": 8571,
      "mous": 8572,
      "CD": 8573,
      "possible": 8574,
      "ĠIgnore": 8575,
      "ĠJOIN": 8576,
      "ĠLE": 8577,
      "Ġgood": 8578,
      "grammar": 8579,
      "dap": 8580,
      "game": 8581,
      "Compiler": 8582,
      "Pixel": 8583,
      "getError": 8584,
      "('\\\\": 8585,
      "Follow": 8586,
      "bank": 8587,
      "Indices": 8588,
      "unded": 8589,
      "getRoot": 8590,
      "Ġmonitor": 8591,
      "generic": 8592,
      "-+-+-+-+": 8593,
      "aven": 8594,
      "ĠTemplate": 8595,
      "ĠINT": 8596,
      "promise": 8597,
      "wig": 8598,
      "future": 8599,
      "yes": 8600,
      "Ġmult": 8601,
      "EMPTY": 8602,
      "AccessToken": 8603,
      "Ġdialog": 8604,
      "Ġgp": 8605,
      "Ġflatten": 8606,
      "CU": 8607,
      "registered": 8608,
      "ĠIterable": 8609,
      "UTC": 8610,
      "mediately": 8611,
      "Ġcoordinate": 8612,
      "onymous": 8613,
      "ĠruleJvm": 8614,
      "Ġextend": 8615,
      "levels": 8616,
      "ApplyOptions": 8617,
      "Commands": 8618,
      "\"]:": 8619,
      "errs": 8620,
      "Ġmicro": 8621,
      "Ġdecor": 8622,
      "tagName": 8623,
      "elseif": 8624,
      "Please": 8625,
      "getLast": 8626,
      "Ġsimilar": 8627,
      "alette": 8628,
      "dialog": 8629,
      "Without": 8630,
      "Ġdep": 8631,
      "Principal": 8632,
      "Fix": 8633,
      "Compute": 8634,
      "relations": 8635,
      "ACTION": 8636,
      "ĠComponent": 8637,
      "RUnlock": 8638,
      "Ġpt": 8639,
      "ldap": 8640,
      "ĠIDs": 8641,
      "mid": 8642,
      "Ġwaiting": 8643,
      "Ready": 8644,
      "magic": 8645,
      "Yii": 8646,
      "activate": 8647,
      "getSource": 8648,
      "Ġcar": 8649,
      "Ġ','": 8650,
      "klog": 8651,
      "Ġarch": 8652,
      "cost": 8653,
      "ĠIOError": 8654,
      "79": 8655,
      "QueryBuilder": 8656,
      "Safe": 8657,
      "Setup": 8658,
      "Coord": 8659,
      "green": 8660,
      "ello": 8661,
      "ä¸į": 8662,
      "Ġaddresses": 8663,
      "former": 8664,
      "Ġreplacement": 8665,
      "501": 8666,
      "assignment": 8667,
      "when": 8668,
      "Relative": 8669,
      "Managed": 8670,
      "Ġworks": 8671,
      "SCA": 8672,
      "}\")": 8673,
      "Distribution": 8674,
      "52": 8675,
      "Since": 8676,
      "]/": 8677,
      "Ġbounding": 8678,
      "Ġassigned": 8679,
      "Templates": 8680,
      "Ġratio": 8681,
      "CSS": 8682,
      "Pane": 8683,
      "Ġentities": 8684,
      "|\\": 8685,
      "Updates": 8686,
      "sa": 8687,
      "Ġcalendar": 8688,
      "'=>'": 8689,
      "(\"\",": 8690,
      "enance": 8691,
      "cha": 8692,
      "Ġlex": 8693,
      "TagName": 8694,
      "Ġhit": 8695,
      "artbeat": 8696,
      "candidate": 8697,
      "plus": 8698,
      "olr": 8699,
      "74": 8700,
      "Ġcycle": 8701,
      "ELEMENT": 8702,
      "las": 8703,
      "mform": 8704,
      "saved": 8705,
      "ffic": 8706,
      "ientation": 8707,
      "ante": 8708,
      "+'": 8709,
      "Ġserialized": 8710,
      "filer": 8711,
      "ĠCP": 8712,
      "Ġloading": 8713,
      "Ġlarge": 8714,
      "gc": 8715,
      "statements": 8716,
      "awt": 8717,
      "ĉĠĠĠĠ": 8718,
      "Ġdecimal": 8719,
      "Ġ((($": 8720,
      "RET": 8721,
      "Ġmaybe": 8722,
      "Ġcond": 8723,
      "Ms": 8724,
      "ĠBad": 8725,
      "Ġ--------------------------------": 8726,
      "NA": 8727,
      "Loaded": 8728,
      "todo": 8729,
      "repr": 8730,
      "53": 8731,
      "Ġcross": 8732,
      "ĠProject": 8733,
      "odle": 8734,
      "adjust": 8735,
      "OW": 8736,
      "Example": 8737,
      "clause": 8738,
      "CLO": 8739,
      "LEFT": 8740,
      "Escape": 8741,
      "ffff": 8742,
      "getHeader": 8743,
      "Ġ\\$": 8744,
      "\"+": 8745,
      "blog": 8746,
      "implode": 8747,
      "TRY": 8748,
      "Ġhandling": 8749,
      "Ġbeta": 8750,
      "getBase": 8751,
      "started": 8752,
      "dynamic": 8753,
      "Tensor": 8754,
      "retrie": 8755,
      "imeType": 8756,
      "getFirst": 8757,
      "ĠStorage": 8758,
      "(!$": 8759,
      "Ġsender": 8760,
      "Ġ!(": 8761,
      "Ġtrying": 8762,
      "nullable": 8763,
      "Ratio": 8764,
      "brevi": 8765,
      "voked": 8766,
      "ndim": 8767,
      "Ġjobs": 8768,
      "igrate": 8769,
      "mesh": 8770,
      "('',": 8771,
      "igu": 8772,
      "Ġdeployment": 8773,
      "Comments": 8774,
      "Ġsequences": 8775,
      "Ġdocumentation": 8776,
      "Pub": 8777,
      "Ġreduce": 8778,
      "TOP": 8779,
      "Ġexecutor": 8780,
      "Ġ');": 8781,
      "going": 8782,
      "Modifier": 8783,
      "Ġones": 8784,
      "Ġshutdown": 8785,
      "Added": 8786,
      "Side": 8787,
      "LEV": 8788,
      "Ġwhole": 8789,
      "astic": 8790,
      "apes": 8791,
      "Transition": 8792,
      "strategy": 8793,
      "Operations": 8794,
      "Ġconnections": 8795,
      "Ġcost": 8796,
      "mis": 8797,
      "mant": 8798,
      "Cond": 8799,
      "ĠShould": 8800,
      "authentication": 8801,
      "setData": 8802,
      "POINT": 8803,
      "Ġtranslate": 8804,
      "Ġcontact": 8805,
      "Uniform": 8806,
      "Ġcreation": 8807,
      "Phone": 8808,
      "(&$": 8809,
      "getAbsolute": 8810,
      "lying": 8811,
      "arest": 8812,
      "pred": 8813,
      "Println": 8814,
      "Quest": 8815,
      "comparison": 8816,
      "Subnet": 8817,
      "Ġcleanup": 8818,
      "ĠTransaction": 8819,
      "tar": 8820,
      "outer": 8821,
      "Ġconverter": 8822,
      "izers": 8823,
      "posal": 8824,
      "IAL": 8825,
      "gi": 8826,
      "ĠNetwork": 8827,
      "share": 8828,
      "Ġiterate": 8829,
      "Ġord": 8830,
      "84": 8831,
      "Ġvisible": 8832,
      "patterns": 8833,
      "tot": 8834,
      "allery": 8835,
      "Book": 8836,
      "some": 8837,
      ").'": 8838,
      "Associ": 8839,
      "Ġprediction": 8840,
      "COR": 8841,
      "PY": 8842,
      "HTTPMethod": 8843,
      "Middleware": 8844,
      "TRA": 8845,
      "eof": 8846,
      "QUERY": 8847,
      "Ġreceive": 8848,
      "RLock": 8849,
      "languages": 8850,
      "MAN": 8851,
      "ools": 8852,
      "Disabled": 8853,
      "Ġworkflow": 8854,
      "epoch": 8855,
      "mapped": 8856,
      "Ġbehavior": 8857,
      "Ġcountry": 8858,
      "unlock": 8859,
      "SERT": 8860,
      ">=": 8861,
      "ĠVariable": 8862,
      "Ġspaces": 8863,
      "ĠWindows": 8864,
      "Mer": 8865,
      "Iterable": 8866,
      "authorized": 8867,
      "æŀ": 8868,
      "Ġbus": 8869,
      "ATH": 8870,
      "dependent": 8871,
      "nit": 8872,
      "calcul": 8873,
      "Geo": 8874,
      "ĠserviceCallback": 8875,
      "ummy": 8876,
      "getSimpleName": 8877,
      "splice": 8878,
      "-'": 8879,
      "rd": 8880,
      "apsed": 8881,
      "ĠĠĠĠĠĠĠĠĠĠĠĠĠĠĠĠĠĠĠĠĠĠĠĠĠĠĠĠĠĠĠĠĠĠĠĠĠĠĠĠĠĠĠĠĠĠĠĠĠ": 8882,
      "Compare": 8883,
      "uplicates": 8884,
      "Ġauthorization": 8885,
      "RM": 8886,
      "Ġuseful": 8887,
      "cognized": 8888,
      "allenge": 8889,
      "Ġplan": 8890,
      "Ġlooking": 8891,
      "OAuth": 8892,
      "FIL": 8893,
      "Free": 8894,
      "Ġioutil": 8895,
      "Ġbasename": 8896,
      "404": 8897,
      "levant": 8898,
      "Ġparallel": 8899,
      "Images": 8900,
      "Ġpipe": 8901,
      "BYTE": 8902,
      "Ġcanvas": 8903,
      "ĠNAME": 8904,
      "Ġ$(": 8905,
      "bootstrap": 8906,
      "respond": 8907,
      "å¼": 8908,
      "ĠTuple": 8909,
      "CCESS": 8910,
      "Tax": 8911,
      "tras": 8912,
      "newLine": 8913,
      "PageLink": 8914,
      "Ġunpack": 8915,
      "Ġotherlv": 8916,
      "getRepository": 8917,
      "Started": 8918,
      "Library": 8919,
      "literal": 8920,
      "Ġ\"#{": 8921,
      "ASS": 8922,
      "WID": 8923,
      "predicate": 8924,
      "getter": 8925,
      "Ġelsif": 8926,
      "errno": 8927,
      "ĠExt": 8928,
      "62": 8929,
      "describe": 8930,
      "Dist": 8931,
      "'][]": 8932,
      "Ġ(!($": 8933,
      "rename": 8934,
      "served": 8935,
      "Composite": 8936,
      "Ġcompiler": 8937,
      "Ġtrailing": 8938,
      "Ġcollections": 8939,
      "Statistics": 8940,
      "\"'": 8941,
      "='',": 8942,
      "Fill": 8943,
      "ĠFIX": 8944,
      "ĠPAR": 8945,
      "callbacks": 8946,
      "outputs": 8947,
      "blank": 8948,
      "ĠGit": 8949,
      "Ġinstruction": 8950,
      "ifiable": 8951,
      "ĠPost": 8952,
      "EW": 8953,
      "']));": 8954,
      "responses": 8955,
      "Ġvery": 8956,
      "TIMEOUT": 8957,
      "Dynamic": 8958,
      "oned": 8959,
      "Ġlayers": 8960,
      "ournal": 8961,
      "rott": 8962,
      "Ġdy": 8963,
      "Ġla": 8964,
      "nr": 8965,
      "hest": 8966,
      "Ġss": 8967,
      "Ġrespect": 8968,
      "Ġcm": 8969,
      "panded": 8970,
      "evaluate": 8971,
      "ClientExecution": 8972,
      "pany": 8973,
      "framework": 8974,
      "Ġcalculated": 8975,
      "Primitive": 8976,
      "Charset": 8977,
      "finite": 8978,
      "wire": 8979,
      "setdefault": 8980,
      "definitions": 8981,
      "LoadBalancer": 8982,
      "esource": 8983,
      "Ġcompatible": 8984,
      "phabet": 8985,
      "Ġcoefficient": 8986,
      "bindings": 8987,
      "Verify": 8988,
      "atial": 8989,
      "major": 8990,
      "lineno": 8991,
      "Hidden": 8992,
      "imen": 8993,
      "agnost": 8994,
      "fallback": 8995,
      "Round": 8996,
      "mysql": 8997,
      "ĠDescri": 8998,
      "ĠbeforeClientExecution": 8999,
      "Ġblank": 9000,
      "Ġdirname": 9001,
      "written": 9002,
      "rono": 9003,
      "Ġsupports": 9004,
      "stackPtr": 9005,
      "}\";": 9006,
      "Ġ19": 9007,
      "ĠInstance": 9008,
      "Ġstarts": 9009,
      "effect": 9010,
      "btn": 9011,
      "icip": 9012,
      "{}'.": 9013,
      "isAssignable": 9014,
      "fq": 9015,
      "readcr": 9016,
      "Ġsu": 9017,
      "through": 9018,
      "tax": 9019,
      "ĠId": 9020,
      "NUMBER": 9021,
      "onto": 9022,
      "Even": 9023,
      "MAR": 9024,
      "peg": 9025,
      "Ġest": 9026,
      "curse": 9027,
      "Cached": 9028,
      "PUB": 9029,
      "rive": 9030,
      "Ġ{@": 9031,
      "iteritems": 9032,
      "ByteBuffer": 9033,
      "Equals": 9034,
      "Ġspecification": 9035,
      "Ġfraction": 9036,
      "Termin": 9037,
      "getStatus": 9038,
      "Ġgetting": 9039,
      "MSG": 9040,
      "BB": 9041,
      "Connected": 9042,
      "Ġpretty": 9043,
      "jar": 9044,
      "Ġgets": 9045,
      "}\");": 9046,
      "Ġcat": 9047,
      "Ġbot": 9048,
      "ĠĠĠĠĠĠĠĠĠĠĠĠĠĠĠĠĠĠĠĠĠĠĠĠĠĠĠĠĠĠĠĠĠĠĠĠĠĠĠĠĠĠĠĠĠĠĠĠ": 9049,
      "ĠUI": 9050,
      "HTTPPath": 9051,
      "Ġcomputed": 9052,
      "ertificates": 9053,
      "PARAMETER": 9054,
      "rw": 9055,
      "Ġchecksum": 9056,
      "ssib": 9057,
      "Unt": 9058,
      "crop": 9059,
      "ĠOp": 9060,
      "Ġ(-": 9061,
      "Ġsur": 9062,
      "cedure": 9063,
      "getBytes": 9064,
      "Ġseg": 9065,
      "arraycopy": 9066,
      "Ġexecuted": 9067,
      "preview": 9068,
      "specific": 9069,
      "otherlv": 9070,
      "ĠFFDC": 9071,
      "isfile": 9072,
      "Ġclause": 9073,
      "zoom": 9074,
      "asList": 9075,
      "returnValue": 9076,
      "Logs": 9077,
      "la": 9078,
      "except": 9079,
      "edDict": 9080,
      "Ġaverage": 9081,
      "69": 9082,
      "ĠCustom": 9083,
      "Locked": 9084,
      "ĠInitialize": 9085,
      "mgmt": 9086,
      "ĠChannel": 9087,
      "Ġcurve": 9088,
      "OPEN": 9089,
      "Prev": 9090,
      "Partial": 9091,
      "æĺ¯": 9092,
      "Errs": 9093,
      "FFFF": 9094,
      "Whitespace": 9095,
      "\"`": 9096,
      "Ġwon": 9097,
      "Padding": 9098,
      "hi": 9099,
      "sizes": 9100,
      "readable": 9101,
      ":],": 9102,
      "Ġmapper": 9103,
      "getInt": 9104,
      "angles": 9105,
      "UpperCase": 9106,
      "PM": 9107,
      "Ġtz": 9108,
      "Ġ'('": 9109,
      "ĠInternalSARL": 9110,
      "qs": 9111,
      "Ġdigits": 9112,
      "rammar": 9113,
      "rection": 9114,
      "Ġinline": 9115,
      "Blocking": 9116,
      "ols": 9117,
      "ighest": 9118,
      "ĠServiceFuture": 9119,
      "servation": 9120,
      "itation": 9121,
      "ĠYANG": 9122,
      "My": 9123,
      "Ð°Ð": 9124,
      "Ġeps": 9125,
      "Family": 9126,
      "ippet": 9127,
      "Ġresolution": 9128,
      "Ġgive": 9129,
      "Ġwhitespace": 9130,
      "ĠUnsupported": 9131,
      "Ġexplicitly": 9132,
      "pd": 9133,
      "ä¸º": 9134,
      "Skill": 9135,
      "ital": 9136,
      "columnName": 9137,
      "Ġprobably": 9138,
      "helpers": 9139,
      "mazon": 9140,
      "Dot": 9141,
      "LATE": 9142,
      "}),": 9143,
      "Ġvs": 9144,
      "ĠThese": 9145,
      "DIRECTORY": 9146,
      "Invoice": 9147,
      "ĠĠĠĠĠĠĠĠĠĠĠĠĠĠĠĠĠĠĠĠĠĠĠĠĠĠĠĠĠĠĠĠĠĠĠĠĠĠĠĠĠĠĠĠĠĠĠĠĠĠĠĠĠĠĠ": 9148,
      "ĠSecurity": 9149,
      "Ġdevices": 9150,
      "ĠByteArray": 9151,
      "FINE": 9152,
      "leaf": 9153,
      "perform": 9154,
      "((*": 9155,
      "Canonical": 9156,
      "urther": 9157,
      "Ġplay": 9158,
      "lices": 9159,
      "LF": 9160,
      "bsite": 9161,
      "SERVICE": 9162,
      "lour": 9163,
      "queries": 9164,
      "Fire": 9165,
      "Tmp": 9166,
      "onal": 9167,
      "Ġinterpre": 9168,
      "removed": 9169,
      "IFC": 9170,
      "UD": 9171,
      "eventName": 9172,
      "Ġgeo": 9173,
      "Ġconstraints": 9174,
      "WITH": 9175,
      "PrivateKey": 9176,
      "mtime": 9177,
      "57": 9178,
      "unnel": 9179,
      "ReturnType": 9180,
      "solution": 9181,
      "Ġgoing": 9182,
      "encoder": 9183,
      "Ġminutes": 9184,
      "Checker": 9185,
      "Curve": 9186,
      "Ġcalc": 9187,
      "Ġcred": 9188,
      "eli": 9189,
      "LEVEL": 9190,
      "getContainer": 9191,
      "Ġhandled": 9192,
      "decoded": 9193,
      "ai": 9194,
      "zA": 9195,
      "delivery": 9196,
      "atives": 9197,
      "getWidth": 9198,
      "Ġequ": 9199,
      "namespaces": 9200,
      "Ġ?>": 9201,
      "COLOR": 9202,
      "FromString": 9203,
      "Front": 9204,
      "veloper": 9205,
      "RESOURCE": 9206,
      "Ġordered": 9207,
      "star": 9208,
      "(\"--": 9209,
      "Ġweek": 9210,
      "maximum": 9211,
      "Ġtemplates": 9212,
      "certificate": 9213,
      "amazonaws": 9214,
      "Ġoutside": 9215,
      "dimensions": 9216,
      "Ġpatterns": 9217,
      "based": 9218,
      "Ġthreads": 9219,
      "Php": 9220,
      "xs": 9221,
      "utc": 9222,
      "ĠRoute": 9223,
      "ĠPattern": 9224,
      "ality": 9225,
      "ads": 9226,
      "COLUMN": 9227,
      "Ġ(@": 9228,
      "ĠBit": 9229,
      "analysis": 9230,
      "Bo": 9231,
      "tm": 9232,
      "Ġdetected": 9233,
      "diag": 9234,
      "aggregate": 9235,
      "lications": 9236,
      "jac": 9237,
      "Ġfront": 9238,
      "Signal": 9239,
      "Getter": 9240,
      "ĠMatrix": 9241,
      "89": 9242,
      "deploy": 9243,
      "Ġfall": 9244,
      "ĠIfc": 9245,
      "Ġroles": 9246,
      "ĠNotes": 9247,
      "casType": 9248,
      "fr": 9249,
      "compressed": 9250,
      "ouch": 9251,
      "general": 9252,
      "ĠEntry": 9253,
      "uting": 9254,
      "ĠCR": 9255,
      "ä¸Ģ": 9256,
      "Ġaff": 9257,
      "ior": 9258,
      "ĉĉĉĉĉĉĉĉĉĉĉ": 9259,
      "ĠUUID": 9260,
      "cular": 9261,
      "Sym": 9262,
      "Ñĥ": 9263,
      "Ġws": 9264,
      "GroupId": 9265,
      "isAssignableFrom": 9266,
      "itemap": 9267,
      "Mac": 9268,
      "Ġrevision": 9269,
      "KNOWN": 9270,
      "ĠfieldName": 9271,
      "forum": 9272,
      "('[": 9273,
      "Ġsin": 9274,
      "sentence": 9275,
      "Ġ)*": 9276,
      "ĠDescribe": 9277,
      "ĉĠĠĠĠĠĠĠĠĠĠĠĠĠĠĠ": 9278,
      "fv": 9279,
      "same": 9280,
      "Ġund": 9281,
      "Ġincluding": 9282,
      "Ġol": 9283,
      "ĠWait": 9284,
      "Ġsigned": 9285,
      "ĠCreates": 9286,
      "Ġsimply": 9287,
      "ĠnewValue": 9288,
      "pow": 9289,
      "getItem": 9290,
      "lexer": 9291,
      "61": 9292,
      "seudo": 9293,
      "Runner": 9294,
      "')]": 9295,
      "WT": 9296,
      "ingleton": 9297,
      "Ġhour": 9298,
      "locations": 9299,
      "cognition": 9300,
      "Clear": 9301,
      "Ġans": 9302,
      "Ġlogs": 9303,
      "Ġleading": 9304,
      "NC": 9305,
      "TypeError": 9306,
      "updater": 9307,
      "ocial": 9308,
      "ĠInst": 9309,
      "ĠPRO": 9310,
      "eps": 9311,
      "getVersion": 9312,
      "Inline": 9313,
      "Ġcodes": 9314,
      "æį": 9315,
      "Ġ)->": 9316,
      "ĠJAXB": 9317,
      "Scaling": 9318,
      "anchor": 9319,
      "pread": 9320,
      "nodeName": 9321,
      "Ġable": 9322,
      "arange": 9323,
      "Coverage": 9324,
      "completion": 9325,
      ".<": 9326,
      "atar": 9327,
      "ĠTest": 9328,
      "Ġhome": 9329,
      "ĠAddress": 9330,
      "Ġdefinitions": 9331,
      "Persistence": 9332,
      "positions": 9333,
      "Prot": 9334,
      "predict": 9335,
      "Ġcomplex": 9336,
      "avor": 9337,
      "pull": 9338,
      "aring": 9339,
      "Ġpolygon": 9340,
      "Ġsurface": 9341,
      "Ġinject": 9342,
      "ocity": 9343,
      "Ġboundary": 9344,
      "swing": 9345,
      "EP": 9346,
      "ĠHas": 9347,
      "Adresse": 9348,
      "Jar": 9349,
      "getHost": 9350,
      "tein": 9351,
      "NewErrParamRequired": 9352,
      "ĠAR": 9353,
      "Ġacc": 9354,
      "Ġ\"{$": 9355,
      "ĠCurrent": 9356,
      "Video": 9357,
      "hist": 9358,
      "âĶĢ": 9359,
      "vation": 9360,
      "could": 9361,
      "did": 9362,
      "Ġincludes": 9363,
      "Sim": 9364,
      "caller": 9365,
      "Ġprompt": 9366,
      "ooter": 9367,
      "band": 9368,
      "Ġrename": 9369,
      "bosity": 9370,
      "(.*": 9371,
      "Perm": 9372,
      "Ġtar": 9373,
      "lik": 9374,
      "ĠCalendar": 9375,
      "LT": 9376,
      "ĠKEY": 9377,
      "Ġliteral": 9378,
      "FileInfo": 9379,
      "Resolve": 9380,
      "Ġdeep": 9381,
      "serviceName": 9382,
      "Ġvertices": 9383,
      "AML": 9384,
      "FR": 9385,
      "Ġcn": 9386,
      ",.": 9387,
      "Ġvec": 9388,
      "andatory": 9389,
      "Ġqueries": 9390,
      "exist": 9391,
[...]
